[S]
[PAD]
[/S]
[UNK]
[MASK]
[SEP]
[CLS]
|
"
TPR
REF
@NEW
$NEW
nsubj
Co-Theme
Theme
Name
obl
obj
EQU
Time
time
advmod
nsubj-pass
EQ
"now"
Attribute
ant
not-P
$0
$1
$2
$3
$4
$5
$6
$7
$8
$9
$10
$11
$12
$13
$14
$15
$16
$17
$18
$19
$20
$-1
$-2
$-3
$-4
$-5
$-6
$-7
$-8
$-9
$-10
$-11
$-12
$-13
$-14
$-15
$-16
$-17
$-18
$-19
$-20
@0
@1
@2
@3
@4
@5
@6
@7
@8
@9
@10
@11
@12
@13
@14
@15
@16
@17
@18
@19
@20
@-1
@-2
@-3
@-4
@-5
@-6
@-7
@-8
@-9
@-10
@-11
@-12
@-13
@-14
@-15
@-16
@-17
@-18
@-19
@-20
PRESUPPOSITION
NEGATION
NOT
agent
"n.01"
"n.02"
"n.03"
"n.04"
"n.05"
"n.06"
"n.07"
"n.08"
"n.09"
"n.10"
"n.11"
"n.12"
"n.13"
"n.14"
"n.15"
"v.01"
"v.02"
"v.03"
"v.04"
"v.05"
"v.06"
"v.07"
"v.08"
"v.09"
"v.10"
"v.11"
"v.12"
"v.13"
"v.14"
"v.15"
CONTINUATION
Experiencer
NECESSITY
POSSIBILITY
Location
Agent
Participant
~
PRECONDITION
ATTRIBUTION
Role
!
#
$
&
'
(
)
*
+
,
-
.
/
0
1
2
3
4
5
6
7
8
9
:
;
=
?
@
A
B
C
D
E
F
G
H
I
K
L
M
N
O
P
Q
R
S
T
U
V
W
X
Y
Z
]
^
_
a
b
c
d
e
f
g
h
i
j
k
l
m
n
o
p
q
r
s
t
u
v
w
x
y
z
{
}
¡
¨
«
°
²
´
º
»
½
À
Á
Å
Ç
É
Í
Î
Ó
Ö
×
Ø
Ú
Ü
ß
à
á
â
ã
ä
å
æ
ç
è
é
ê
ë
ì
í
î
ï
ð
ñ
ò
ó
ô
ö
ø
ú
û
ü
ý
ā
ă
ć
Ĉ
Č
č
ē
ę
ě
ī
İ
ı
Ł
ł
ń
ņ
ň
ō
ŏ
œ
ř
ś
Š
š
ţ
ť
ū
Ž
ž
ș
ə
ˈ
˜
π
а
з
й
л
о
ḥ
ṛ
ẽ
‐
…
₂
₤
₩
→
−
あ
么
務
問
够
政
顧
麼
？
##o
##k
##y
##u
##a
##s
##h
##t
##d
##i
##n
##c
##e
##r
##l
##p
##b
##g
##f
##m
##ö
##v
##x
##z
##j
##w
##8
##6
##0
##4
##9
##á
##é
##X
##P
##1
##5
##š
##2
##ß
##7
##í
##q
##ó
##ę
##3
##L
##T
##E
##R
##N
##A
##I
##O
##ș
##ā
##à
##ï
##Y
##ü
##ä
##ý
##ž
##ê
##ć
##Q
##º
##ç
##ë
##S
##U
##C
##ł
##ú
##ś
##ī
##B
##ť
##ň
##ñ
##č
##ř
##ã
##ı
##è
##ņ
##²
##å
##₂
##ń
##F
##â
##M
##ō
##æ
##ə
##î
##Š
##¨
##˜
##ô
##œ
##Ú
##ŏ
##°
##ò
##G
##ě
##Ö
##ţ
##л
##о
##й
##ì
##ø
##W
##D
##½
##ṛ
##ū
##ð
##û
##ē
##→
##а
##ă
##Z
##×
##ḥ
##−
RE
01
##me
NE
NEW
##er
##ime
##ON
##TI
##nt
##TION
##on
##SI
##ES
PR
##PP
##OSI
##UPP
##ESUPP
PRESUPP
##OSITION
##ti
##QU
##he
##heme
##ow
##ent
now
08
##ea
##son
per
person
##gent
##tion
##it
##le
##Of
##ation
##ity
##ntity
##ri
TP
##te
##ar
##ame
##ATION
##tt
sp
02
##oc
##ute
##eak
##rib
entity
##ribute
##ttribute
speak
speaker
##ocation
##ale
##ear
##en
AttributeOf
##an
##GATION
##ur
Par
male
##or
##us
##ci
##op
hear
hearer
##al
##in
##es
Co
be
##enc
##ul
##ic
##om
##per
##cip
##xper
##ienc
##xperienc
Experienc
##ee
##ant
Part
CON
##os
##ve
##ce
location
PartOf
##ub
##ay
##ole
##is
##ua
##tim
##timul
##timulus
Stimulus
tom
##uantity
##NU
##TINU
CONTINU
##our
##ati
Sub
##ticip
##ticipant
##opic
Topic
##atient
Patient
##ot
##em
Quantity
##ition
##TR
Pr
##TY
##ke
fem
female
##tin
##osition
##iv
##ner
##oposition
Proposition
AT
##IB
##UTION
##TRIB
ATTRIB
##gr
##ol
##estin
##estination
Destination
##rea
##ivot
Pivot
##at
##ource
##st
##ser
st
Source
User
##el
##gree
ha
##ont
##et
##anner
Manner
##egree
Degree
##ly
##ient
go
##ure
##ecip
##ecipient
Recipient
##tor
##ary
PO
##LI
##ILI
##SSI
##BILI
POSSI
##BILITY
th
pr
##il
10
##ch
Of
ev
##ing
##ou
##ct
##de
##ir
##reator
Creator
##ue
##ake
##iz
##onth
##ment
or
##eas
event
##od
li
have
##ed
##and
##gan
##as
##ate
ch
organ
##ization
##ig
organization
##ge
pl
##easure
##ury
##ef
measure
##der
##entury
##nit
11
Year
##Century
##OfCentury
YearOfCentury
##ome
do
in
tr
##alue
12
##ion
rea
Value
##ult
re
wor
##oo
##ru
TI
TIN
##art
##ess
##ut
Unit
##00
##un
03
19
##ici
##now
##mp
##aus
day
##CES
NECES
##SITY
##pp
##ade
Cont
##ff
##ell
##ain
ar
13
know
##ble
##esult
##ook
##her
Caus
Causer
Day
DayOf
##ore
Month
##Year
##OfYear
MonthOfYear
com
##stru
##all
want
see
Made
MadeOf
ex
##ht
##ng
##ish
##enef
##ac
mary
##ry
sh
con
Result
##enefici
##eneficiary
Beneficiary
In
##strument
##ad
##ist
Instrument
gr
##ous
##se
##id
14
su
take
man
cl
##end
##ost
get
un
##Month
DayOfMonth
##ort
say
ne
as
##est
like
pro
##ie
de
##ink
##nd
##ive
car
##ite
15
fr
20
this
fa
come
quantity
Or
Order
make
think
##ld
more
##ap
##ust
##NATION
##ver
##ind
##qu
##ight
##one
play
al
good
tour
##ance
Content
##re
reason
##ard
la
##ice
##oal
int
##act
##th
ac
##old
##ery
##ong
work
##ove
br
##ount
##man
comp
##odu
##im
Goal
##tif
##ex
part
lea
new
##ia
for
16
an
##ace
##ament
##ose
##ass
look
##oy
##ack
tell
17
very
##ill
##ine
##LT
ma
NEQ
pri
bu
##alk
##ild
##ect
##age
##ber
##ip
##og
##ec
##eed
##ext
ALT
##ER
ALTER
ALTERNATION
##nament
##ra
tournament
##tic
##um
##wner
##uration
##ud
##lour
Duration
Colour
so
ad
##AS
CONTR
##AST
CONTRAST
Owner
SubOf
most
qu
##ally
18
##ock
##am
ContentOf
inter
Context
##int
give
##itle
count
##enn
##ide
artif
##ath
##ence
artifact
##fe
op
ro
##ency
par
dis
##oduct
##ction
##ang
##oman
tenn
mar
jo
bl
exp
wr
cont
##able
201
happ
pol
tennis
world
en
##eek
TA
TAB
200
co
##amp
hel
##XP
##si
wat
##ound
##riend
woman
year
app
book
##ean
country
ger
cour
state
find
eat
##ab
imp
hold
##ric
pa
##eal
help
sm
german
##ss
live
le
##other
off
##ag
Product
res
##ool
##sh
call
##ire
leave
child
ser
##ouse
##ug
need
##ise
##eet
tea
dri
love
old
##dition
open
##oney
##inish
Path
rep
##reat
stud
##eat
sch
##low
ask
sw
str
di
##quency
##tter
##CE
read
money
sc
##land
Fre
Frequency
win
##ep
##EN
##EQU
##SEQU
CONSEQU
##ENCE
CONSEQUENCE
##ical
##ick
talk
##ope
friend
##urn
place
on
just
home
eng
court
##gin
unit
ind
bus
##ange
Title
use
house
##iss
bel
how
##orm
out
wh
##ood
comm
dog
sing
##oor
##are
hand
germany
##ather
at
ab
cr
sa
##eep
##vel
gu
##ship
##igh
up
199
pres
run
united
04
try
long
buy
right
ph
school
min
way
cat
##irl
mo
##ast
##come
real
21
grand
##ress
plan
to
acc
##olog
sec
well
##ign
##ational
##ans
life
room
name
diff
##own
St
Start
##ern
girl
##lish
##ro
last
rec
city
##eel
##if
bo
##ial
##ile
##alle
##lock
form
##ring
wa
##ase
##ank
fl
##day
hard
ele
##ead
05
##ieve
boy
write
Clock
##Time
ClockTime
##ten
EXP
##LA
EXPLA
EXPLANATION
198
##ll
rel
te
sit
feel
edition
07
##cl
under
father
##ning
##ting
##ister
all
put
ref
22
##cle
##lic
id
##nk
##blem
problem
col
you
party
sl
water
stand
##ck
eur
##ord
che
bea
war
ear
great
Finish
keep
##ier
##ory
champ
happen
seem
##les
##ease
##ench
##iver
po
##cc
##tive
##ITION
##DITION
champion
##ket
meet
##apan
japan
##up
##mer
pre
##ution
us
inv
##Week
DayOfWeek
teach
##ach
become
##ris
##stand
af
des
back
aw
intern
##arge
gl
##eral
ass
wait
##ote
##gh
##ze
##leep
trans
00
end
##ily
reg
##oup
##get
##vern
lose
##ond
##ize
25
study
soc
start
##ful
young
##ari
walk
##ne
##estion
sy
##ail
begin
24
mother
sur
believe
french
week
##ash
show
##oe
die
##ght
##itt
govern
red
ob
bad
english
high
championship
stay
##0000
understand
fam
challe
##uth
##ert
break
turn
30
##any
stop
23
lang
mean
ge
such
late
conf
langua
train
change
language
lear
question
##nger
job
pay
prix
drink
word
##use
deci
06
gen
##pt
only
learn
##rica
law
government
fin
watch
##wer
##ycle
##ens
pass
same
cor
ent
##oss
##vice
emp
wear
197
supp
ame
seri
mor
happy
fun
##ual
##earer
states
26
challenger
company
##ative
##ological
##oll
##sible
thing
is
Bearer
##ye
##mb
hu
of
class
ter
produ
fall
rain
prof
sun
rem
air
sk
bost
boston
SXP
dem
sleep
big
vis
##uss
fed
##tem
door
##form
##air
##ject
##ident
cons
att
im
doc
##ough
mot
large
##ork
lie
09
litt
import
even
far
little
too
##cid
no
title
##EC
##ONDITION
PREC
soon
the
##ina
sea
##ian
##ional
ins
over
order
##cent
tele
hour
##ral
##vi
##ich
kill
mem
##eci
##ict
game
really
news
formation
head
ans
##oot
##row
mil
answer
differ
mr
international
##ually
build
dep
student
##ark
##oun
night
singles
cap
##ull
geological
sub
ag
##con
eye
Ass
please
Asset
##ther
##ph
disc
idea
27
miss
police
small
##sc
##ife
beau
beautif
eas
##ak
AP
beautiful
APX
tra
letter
teacher
agree
fol
wind
mus
##ital
fir
america
hope
##loy
cir
europe
group
inc
france
##cident
brother
sure
front
bring
##ded
hur
##ness
succ
##ublic
care
president
forget
cent
##ular
ann
move
##iness
##velop
cold
king
can
##ty
morning
##isten
proc
rest
develop
profess
SZ
##ted
SZP
##rive
bir
bed
food
motor
sent
##tical
##umber
se
##stem
##ried
follow
fi
visit
site
##ower
##vie
fire
##ealth
resp
pos
eff
drive
system
##ream
act
white
##ely
finish
important
aust
##hn
comple
##ob
bas
sol
face
able
##less
da
##anger
##gg
alone
ret
##ump
contin
def
point
sentence
##icult
light
difficult
it
true
circ
prote
family
28
PRP
expl
##ok
wrong
sister
##gry
union
##sion
##mit
##ention
##tory
matter
LES
mat
number
##ense
swim
mist
arrive
bear
##ret
doll
mon
catch
federal
SY
##cil
prom
early
##aly
##ility
human
##ude
LE
LEQ
doctor
##aste
black
john
##ese
round
add
bar
fil
dir
prov
service
speci
##ule
##uck
accident
fore
##iti
grow
##ety
contr
percent
motorc
##out
ra
##eeting
##ision
del
motorcycle
month
##li
29
reme
ste
##door
##ey
##read
leg
employ
cut
park
outdoor
##ov
first
meeting
med
expect
##uit
social
##mber
rev
listen
##az
nation
son
progr
present
pea
##ttle
enough
bri
##work
econ
wish
remember
china
econom
professional
office
decide
conc
##tice
##sider
send
parent
health
##atic
sum
dollar
prop
requ
free
dea
tri
result
##outh
race
member
sign
arm
atp
##ority
series
each
##eld
##res
##min
fav
##tiv
hor
SY2
mod
##ax
coff
other
story
met
##cept
consider
mistake
peace
cri
pict
spend
bill
election
snow
easy
austral
pop
##ori
##hen
tree
##ause
31
picture
##ere
##port
business
minute
##ter
av
##ster
table
plant
coffee
cry
mount
##ib
##ated
clay
##dge
rece
wife
dist
opp
##ush
close
##ky
##eful
##tit
process
circuit
adv
movie
busy
##ural
cost
truth
ext
##rop
side
street
national
fish
##io
tro
commun
gre
town
film
mind
##oice
report
station
thank
secret
##xt
##dom
case
vir
death
short
carry
return
phone
power
##rist
different
oper
##uble
land
music
det
tir
we
##yp
##und
##ught
nat
##arm
sal
##ha
##osp
kid
##ft
minister
lead
danger
vi
hate
hair
production
set
##onder
##raid
dra
afraid
##over
australia
tired
##ample
kn
##olution
commit
window
##bor
##rease
success
river
area
cal
season
complete
aff
cook
##med
wonder
possible
foot
##go
flow
team
sor
##000
##ane
continue
mountain
##ication
##unch
paint
##qual
less
nice
din
chance
##oud
transl
surp
##ulation
travel
pen
married
cup
es
pur
##co
and
hon
age
##cer
auth
cause
dru
dress
##du
favor
hea
si
accord
offer
maj
poli
##ith
god
##av
##tend
##tty
example
prize
ap
div
ill
##ape
##ertain
##oke
indoor
sell
##eng
heart
##br
mark
treat
away
##ball
clear
##ivers
indust
public
##XX
em
full
net
kingdom
##ission
building
fail
island
am
sick
wash
fight
key
##rove
##arth
char
sorry
##uation
##ike
##ator
inform
fast
italy
receive
##cess
cust
dead
seat
##ater
##ughter
##uter
##irt
inf
club
card
road
earth
##eration
england
2012
##ugh
fut
##imal
dinner
angry
bank
occ
summer
accept
sound
##den
remain
whole
future
laugh
quick
2013
increase
hurt
computer
strong
force
support
development
dream
##ously
##gy
##xx
elect
general
##ium
##iate
ColourOf
hot
##urg
price
2011
loc
##eather
special
player
seeded
bab
animal
##ection
waste
##chst
virgin
rule
arr
song
stri
##icial
sci
glass
grass
##oon
west
ready
pet
##oint
bor
exam
ride
##gn
##ocr
conv
clot
require
colle
hun
##lin
##way
europ
flower
post
dark
best
cur
sus
tax
program
ir
discuss
virginia
hoe
european
save
##itz
env
milit
##ugee
refugee
enter
baby
hosp
rich
shop
careful
manage
that
fact
2009
provide
##joy
guy
##ounce
##hes
saf
foreign
ball
product
crea
reach
blue
tv
##ortun
2010
according
hospital
line
##chn
paper
east
##ony
polic
enjoy
abs
usually
economic
certain
##ussia
weather
suit
respon
hoechst
deal
gard
##earch
trouble
##ument
##app
##friend
pretty
promise
decl
corre
nort
##oto
there
##clude
horse
heav
dance
fly
wall
carp
garden
est
jump
russia
##iter
than
tall
weekend
mer
pick
##pl
##phone
simp
appear
clean
hat
poor
##tern
quite
field
##ims
ber
art
apple
trust
allow
decision
rally
##iction
##ism
base
sold
CONDITION
##olve
bird
ow
she
nations
lef
some
compe
parli
parliament
##uty
situation
daughter
##ticle
birth
##ently
deut
attack
pie
democr
political
kind
##ume
aut
tou
##ba
exc
project
techn
earn
soldier
market
press
super
##iron
worker
mari
will
SX
##rise
green
susp
SXY
##ied
##ality
##nce
championships
##ensive
##resent
environ
left
vol
##ology
mill
##esting
official
represent
35
##ny
##inion
slims
##sche
favorite
##omer
past
neigh
##ta
award
explain
revolution
south
##hy
about
sunday
demand
step
33
her
hide
tem
prep
opinion
smoke
univers
el
ring
top
##ik
information
rad
typ
##zy
experienc
sense
##pa
##ief
moment
let
##erland
article
##acter
environment
##urity
down
main
wood
interesting
fine
switz
recent
switzerland
sil
tw
vie
##ave
##inter
second
lad
##kyo
hit
##yl
##ene
shoe
clos
tokyo
throw
brown
carpet
Ext
perform
star
Extent
clim
control
kiss
hol
pot
store
condition
cross
safety
##erence
shirt
camp
perf
leader
lond
vote
##hed
quickly
london
came
ve
ship
cover
smile
##ling
##ption
security
##otel
character
lunch
marry
capital
cult
necess
##mediate
hotel
vic
box
##bility
50
tot
level
deutsche
lo
##ton
steal
christ
##artment
redu
low
trip
translate
stup
suff
improve
committe
military
34
mid
##ination
32
ori
bund
##bo
bag
tod
sud
compl
produce
rise
chair
check
##dle
beer
194
view
cra
##vent
least
ok
wta
prac
stupid
coun
Equal
disapp
clothes
slow
tat
##elf
his
test
winter
2000
gold
draw
term
raise
authority
##ror
customer
piece
doub
master
used
##tivity
ice
##ger
##oth
fig
##iet
republic
milk
history
den
voice
##ective
1995
concern
fac
mad
##ask
inj
effort
##aur
guit
immediate
create
40
pref
##iation
##ible
##bour
##erve
##stance
include
prison
fri
rock
region
##gue
##ogn
suppose
jud
##ested
arrest
council
er
fear
##icycle
final
evening
ba
##orn
phil
famous
sport
##emy
##key
2002
surpris
wine
stru
finally
today
ris
##omb
agency
agreement
employee
guitar
not
cho
##acy
##sibility
north
university
drop
value
common
center
fu
iss
##cy
express
committee
sudden
##atis
dec
##paper
##red
relation
worry
wake
any
scr
plane
##gar
camera
##ler
homework
pian
recogn
telephone
tatoe
figure
##uf
##fast
##vision
interested
crow
assoc
##line
##bit
spain
color
glob
serious
protection
major
choose
sn
sad
completely
prefer
competi
##ious
##ew
##grap
hurry
announce
necessary
bicycle
near
##rate
##qua
beach
newspaper
experience
perfect
tatoeba
worth
##room
floor
##titution
lady
issue
mis
##tics
advice
##ific
breakfast
ver
mach
expensive
notice
policy
estab
##ature
action
score
means
dangerous
vill
##cial
joke
account
interest
##ribe
sugg
division
pain
##ada
deb
address
establish
mur
196
restaur
restaurant
vac
##tain
##na
dan
val
##ney
ach
squ
tear
##band
correct
cake
lake
mess
100
##ellow
match
berlin
mag
addition
##ift
birthday
cand
refuse
television
##rodu
##leg
##urch
share
1996
vari
##oul
##iety
##mas
inde
quiet
moon
##road
solve
purp
##que
##ato
##reme
industry
oil
##here
heavy
due
##by
##eech
strange
popular
luck
##erv
shoot
priv
coat
risk
##erm
spir
##struction
##ovel
course
medici
achieve
emb
esc
##unt
##ration
##ulate
paris
church
37
hus
##oid
##burg
##ether
chris
desc
medicine
egg
suffer
surprised
japanese
tog
beha
regard
cop
##rick
operation
honest
hungry
together
ce
deep
prin
aftern
attention
traff
afternoon
asleep
##minal
global
coal
position
prepare
piano
##hol
##ward
##ivid
##ella
rob
kit
me
spring
##tick
invite
succeed
36
mouth
speech
ground
manuf
difference
monday
traffic
har
pack
spirit
bread
coup
actually
manufact
##ince
activity
list
meat
tur
##istic
partic
assist
husband
jew
tic
##ons
##omp
belong
frontier
origin
bike
dam
novel
sale
sky
neighbor
bur
fair
##duc
##stant
involve
christmas
particular
york
viol
##ys
type
gun
hall
##ledge
modern
##ictionary
climb
photo
imag
touch
dictionary
trade
##arter
exist
scar
commission
doubt
ener
ii
pal
##rible
##icate
##istan
record
gener
radio
introdu
ticket
self
##chen
space
##olf
stage
attend
depend
hang
drunk
XXX
sand
stra
charge
contain
enemy
immediately
couple
XXXX
##por
##ating
coop
feeling
2014
lay
##cture
##idence
research
ca
sim
##zen
coll
document
cast
wed
##pend
##astic
discover
##ength
sti
appro
##alf
libr
inn
desk
population
million
machine
library
equ
educ
patient
ton
##iod
tooth
chem
africa
airport
subject
##uff
##ev
conver
join
driver
society
avail
civ
note
##SU
RESU
##ings
uncle
based
village
RESULT
##ruit
soccer
ign
tier
choice
conn
apply
smok
pale
period
complain
##ka
##aim
##ma
facil
##ify
model
sme
exce
object
cow
mel
##fic
##cious
crime
##mbr
##atisf
gar
he
##easant
impos
individ
management
association
norm
##ki
##ought
burn
emer
##sy
##rael
ban
task
reform
independ
cell
##uri
##cise
safe
local
dish
rate
##aterial
strike
murder
beat
fool
pe
##berg
abroad
girlfriend
israel
army
impossible
Material
found
ken
##ding
##head
fix
progress
lu
port
##aw
##ron
##esti
##ugg
##lands
noise
direct
mass
umbr
##rel
##erial
##cian
easily
curr
umbrella
natural
knife
escape
exper
jack
sat
##ai
glad
suddenly
recognize
gas
##aration
central
canada
reduce
fault
impress
india
effect
bridge
criminal
nature
individual
taste
##kom
##ah
195
##00000
industri
judge
energy
civil
dest
##omen
##herlands
2001
prevent
weight
netherlands
environmental
que
trad
admit
simple
culture
total
telekom
community
smell
text
comb
unf
century
##ctive
single
fill
##ooge
material
##yer
##van
bud
serve
bottle
esp
middle
aud
gain
san
tie
trick
##lect
##mpic
phys
purpose
los
mi
blame
baseball
scrooge
fat
##ico
##ability
##arian
smoking
lend
stick
##hem
respect
thought
##ird
blood
applic
##ager
conference
network
warm
fle
ur
##ven
blow
one
element
distance
coalition
available
lock
satisf
alread
##umb
centre
extreme
occur
already
sep
##ior
##val
relig
release
transport
bol
sen
sight
##most
worried
planning
introduce
lack
##lo
spd
science
jus
##bel
arti
engine
assem
competition
pull
##ata
stat
forest
crazy
##esh
##mpt
economy
drug
suspect
hill
muse
##hood
##irm
shut
concert
practice
may
goal
##ession
contract
kil
##lict
message
christi
industrial
bath
oly
pun
##side
##oof
particip
avoid
borrow
##estig
##egr
##inger
ident
manufacture
cer
oc
##itation
investig
##viet
closed
weak
stock
funny
vacation
fruit
gift
##bly
##vil
limit
##bert
soviet
disappoint
kitchen
facility
especi
feed
mex
##itch
##uate
initi
arab
maint
1994
opportun
especially
##ately
intend
appoint
surprise
##xxx
slowly
38
##nel
realize
finan
college
proud
accuse
standard
scient
##graph
opportunity
boss
bomb
cru
##ody
board
terrible
criti
museum
mul
##ender
##usion
bob
fund
##goti
excuse
##ois
solution
request
bon
##za
liber
bal
fe
heat
nerv
intell
guess
protect
successful
temper
citi
##sure
##esday
##perant
##ili
exh
esperant
brea
##ential
##ocket
stone
chin
prove
offic
conflict
deny
harm
bet
mail
swed
then
advance
##set
storm
alive
while
owe
describe
olympic
##osal
negoti
poly
department
##view
princip
bite
fur
half
non
##book
contact
detail
autom
cel
##sequ
integr
1987
ju
nu
##eman
compare
quit
salary
officer
dr
##ker
##lace
thr
2005
design
injure
citizen
bow
yellow
##fer
##hevi
knowledge
##ipe
beginning
lawyer
satur
meal
##mar
##antage
1000
parliamentary
democratic
gri
wel
##af
##ena
empty
esperanto
rome
##len
##osop
##icious
grad
politi
guard
movement
majority
tradition
christian
ocean
##sive
##father
##iment
##ana
sweet
washing
own
suggest
##iday
##ector
boyfriend
glasses
holiday
veget
crowd
os
pat
##ming
personal
bro
quality
2006
saturday
politician
push
##geles
angeles
##ama
disease
2003
##clear
##airs
technology
philosop
application
dia
equal
search
braz
disp
grandfather
planet
##oken
billion
responsible
toy
##rupt
almost
labor
admin
insur
basic
responsibility
ful
ira
tar
##stin
##lement
prime
freed
2004
rights
various
loss
##fort
##itate
##anish
##iving
clock
sched
function
treatment
behavi
education
foc
pan
range
##orge
##idate
joint
sav
training
consist
secretary
carefully
approach
brazil
duty
##rican
accomp
flu
1985
freedom
data
ky
with
##ited
##arate
##ette
forg
atte
1989
complex
finger
source
##we
##men
next
frank
partner
appre
flight
slice
internet
cooperation
nervous
manner
native
tire
unif
2017
##aria
legal
convince
mexico
chinese
42
amb
gent
rid
pers
##inate
shoul
football
chemical
attempt
les
mont
mention
##ox
##ider
claim
reply
guil
demon
##board
critici
whe
##mend
##isl
enc
smart
structure
nar
women
##case
##roy
##ria
##orce
##ateg
inst
##ache
leaf
socialist
factory
artist
mun
##anch
soft
repair
victory
ahead
##rew
destroy
iraq
host
jane
sex
exer
construction
surv
settle
signific
turkey
rail
orange
cloud
1993
entire
remove
attr
current
appreci
wea
wage
##don
speed
##ung
confirm
occup
private
damage
exercise
ess
jour
##imum
1986
1982
communication
determ
schedule
determine
ed
gh
psy
broken
access
error
imagine
gentle
39
cze
yen
##ician
slam
pretend
##ension
czech
60
aim
mile
rose
##pon
seek
##estag
paul
legisl
honor
potato
bundestag
ace
ang
liter
living
##ley
obser
corner
federation
proposal
meth
psych
hum
roll
arg
exec
sugar
regional
memory
western
assembly
welcome
hell
pub
pig
##itive
##ml
##riage
##used
##olute
brit
singer
##iforn
defend
advantage
californ
apolog
role
##com
##let
regr
##acity
replace
painting
forgive
california
page
##sm
##mate
warn
regular
victim
extremely
demonst
degree
dry
congr
content
1981
located
programme
straight
focus
by
jac
tu
boat
log
nose
##aff
##igar
shar
asia
##sian
delay
absolute
certainly
awards
normal
argument
bul
cigar
constitution
imm
salt
calc
broad
apologize
aid
fit
mir
vo
##onent
fresh
pharm
surr
basis
difficulty
electric
independent
punish
bour
reti
likely
smith
1992
affect
infl
discussion
performance
participate
bonn
jim
wet
##che
##fy
sweat
invent
wedding
roman
##ilar
fre
fran
crash
##itter
afford
lucky
ignore
palestin
budget
appreciate
fes
##ison
##nge
##ping
##alist
##timate
##igner
193
comment
butter
##aster
simply
bundes
financial
regret
ego
##urb
prem
shake
alli
cheap
##erty
employer
apartment
41
soup
##iot
##mother
##ience
##reaten
threaten
pleasure
1990
translation
declaration
nuclear
administ
don
once
meaning
supply
web
multi
shoulder
cute
##oric
##ban
uns
refer
theory
promote
bright
wonderful
failure
representative
friday
similar
principle
ghost
##otion
##sation
##sch
##ancy
##inary
##atin
##atory
recom
beauty
capacity
dirty
property
##ylvan
innoc
queen
britain
cris
wound
argue
##istry
adm
deserve
surf
operate
pencil
my
pu
pocket
##eased
winner
mission
bols
bourge
ast
dad
##ek
##atch
analy
invest
corpor
author
45
bav
hist
size
spanish
##uld
##ked
2008
resolution
shower
##tival
temperature
il
implement
1991
grandmother
1988
useful
taxi
conversation
weapon
festival
band
mom
##yle
##ribution
block
cool
cred
knock
recommend
na
pool
##light
##ocol
##isation
##ela
##unk
resource
1980
petro
iron
lesson
method
anti
bid
rent
rice
rum
tal
yes
stare
habit
##under
active
adop
bush
wave
poet
protest
advise
peter
willing
package
scared
##hr
##ij
##tton
argent
assume
1978
huge
##azine
declare
correction
behavior
bolshevi
bourgeois
dig
ru
##lebr
comfort
2016
approve
1998
illness
policeman
relationship
equip
piz
tong
##wh
wrest
1997
annoy
celebr
separate
kyoto
ben
categ
kor
kick
mal
mos
wit
ther
courage
resist
resign
handle
guest
sector
terro
earthqua
emerg
justice
sweden
earthquake
43
mic
pil
tex
##olence
##mann
##ably
obvi
profit
defeat
copy
cigarette
lift
2015
command
remind
mathem
clearly
examination
still
satisfied
hy
loud
##sis
permit
##ogp
poland
magazine
sharp
##ylvania
tongue
aver
wild
##grad
gree
blind
happiness
##fully
challenge
1979
calm
eastern
decline
pressure
embar
assistance
castle
mix
argentina
wide
##ko
##utive
##utical
ash
quarter
##istence
foreigner
healthy
significant
greece
cab
##orf
##icide
concent
constant
##sec
interp
slip
motogp
explan
kilome
##da
##ona
##ople
arch
##aceutical
cheer
american
##aka
cancer
direction
chancell
battle
candidate
pharmaceutical
44
roof
tor
##ray
spons
online
awake
absent
technical
kar
spread
consequ
acqu
pair
relax
annual
growth
religion
sponsor
500
map
##ned
pleased
brain
anx
1977
ski
meter
opposition
treaty
collect
silent
guilty
bavaria
pizza
emergency
explanation
benef
##ya
##rit
troop
democracy
revolutionary
disappointed
negotiation
length
##hic
##iff
##lig
##vant
recover
poem
possibility
retire
chancellor
wealth
##dney
##vo
##cin
third
truck
##ppy
dev
prim
sydney
obtain
square
vegetable
adopt
interpret
hole
pour
xml
##lam
##fur
##erate
double
track
around
shout
##vere
brand
2018
coin
seriously
austria
trial
disappear
debate
cerem
bi
bound
##bon
##rict
chocol
expert
benefit
chocolate
body
gate
golf
rus
##utt
##zz
##led
incident
##action
counter
strength
##like
debt
eth
sou
##igent
##igr
spl
2007
afgh
transfer
thanks
reduction
people
STI
peasant
ty
##gen
##mission
##amed
##ashion
institution
games
##duct
historic
ko
path
rap
sile
tan
tend
##hl
##ham
staff
ham
pred
plastic
appar
guar
1983
confused
medical
violence
savings
49
cance
nur
##ctor
income
actor
export
contribute
could
minimum
remark
skin
washington
illeg
uk
##eness
##cing
##ics
##ival
pray
ensure
##ealous
reality
1984
##iverse
specific
##titude
cultural
intelligent
jacket
mathematic
ceremony
afghan
jugg
wid
##know
##rom
##rain
##gor
##ortion
##etch
##asion
from
##aken
firm
hung
shel
excell
appointment
alliance
crisis
petrograd
jealous
wim
##ste
##nam
##emp
evil
grant
suicide
brush
stranger
belg
hands
continent
favour
breath
gentleman
cdu
##ius
##rid
##change
armed
fred
marriage
scream
##icken
flat
george
hunt
##cohol
prisoner
survive
category
afghanistan
excellent
fer
file
link
##sel
##itor
##orrow
##omach
tomorrow
stuff
existence
shape
alcohol
bell
##allet
extra
##enger
##place
engineer
men
ta
vide
##ians
##mond
##ji
##ware
##ground
stomach
##thle
adult
sail
section
itf
shopping
insurance
average
silence
athle
rank
##rot
stad
evidence
##bledon
asp
statement
repeat
euro
cheese
professor
##titute
politics
custom
suitcase
maria
bowl
uniform
surround
russian
wimbledon
feat
pin
pink
##cast
##rass
##active
outside
sax
desire
effective
dav
affair
ruin
bench
date
lic
mood
exchange
option
##ernal
cookie
##engt
totally
absolutely
embarrass
cancel
cy
fortun
gather
sink
##ipp
##water
##isco
100000
##iger
##icient
shine
ability
1999
relative
strip
palestine
belgium
000
jer
latin
rh
sin
##dp
##ique
##gl
##urs
chicken
commer
shy
subs
agric
swimming
original
##iliar
consequence
cream
ke
nap
owner
##cel
sup
manager
launch
strengt
farm
##resp
kidn
maintain
scientist
##ield
##gu
##vation
##alog
##ourage
##emble
pron
##chan
conduct
neck
##oyal
poll
mob
##alled
idiot
internal
importance
fiber
generally
souther
feature
agricult
cin
du
dim
fashion
rope
ten
tun
##aint
##eer
spect
##cient
reject
unable
faith
##tify
friendly
regulation
baden
1976
proper
foundation
innocent
bother
dip
han
lin
sam
##nic
##gart
##wich
##met
##ones
##ini
##tinct
hamb
thief
chap
deleg
##raw
adj
writer
##ghten
conscious
##ggle
delicious
three
publish
influ
fan
mike
rab
##bid
concept
branch
martin
who
atm
boring
usa
usual
1973
metal
##iversary
guarant
handsome
southern
hire
hob
pension
tool
wallet
##ien
passport
1975
director
expression
graduate
monte
talent
##employ
hamburg
lar
math
spell
basket
raw
squir
sandwich
tuesday
korea
curi
four
rather
##ple
##rich
unemploy
##apt
diet
attitude
secure
reference
passenger
explo
##atically
silver
suggestion
burst
frequ
ec
wise
##wide
stutt
lazy
print
interview
engage
youth
##rism
1974
propose
metric
gregor
bored
vehic
jewish
connection
ashamed
squirrel
vehicle
46
cas
dear
tim
##my
spin
carlo
enable
ministry
lawn
finland
cloth
hero
audience
frankfur
romania
credit
equipment
stuttgart
ga
joy
lon
nab
pill
##west
##ttery
ord
##anda
##ected
pak
paci
##ago
poison
transylvania
classic
barely
reven
injury
struggle
valid
portug
combine
traditional
accompany
congress
rapid
cash
mt
pant
pound
##umer
##house
spot
##ander
chop
universe
cro
planned
theater
external
arrange
masters
unfortun
##ville
voa
premier
video
stadium
fort
fellow
nor
##la
##andon
trump
extend
soul
##ification
aware
familiar
territ
SY1
directly
guarantee
80
fal
hen
mich
wing
##rat
##where
spok
##ulsion
stamp
exten
disaster
code
abandon
upset
presence
##clusion
insist
captain
proced
investigation
target
spokes
48
##ies
##enture
thin
threat
instrument
##hern
Instance
##amb
flood
related
pregn
emph
##ova
northern
bark
sem
##uce
##dy
##iant
##no
##ces
##ither
ancient
leon
##tingu
slight
generation
career
circum
emission
requirement
two
behave
tonight
analysis
witness
52
ren
##uous
##hold
##ceive
conser
dete
button
boil
confidence
volvo
wheel
journ
rumor
nurse
hungary
pakistan
pacific
breat
pic
ul
wil
##hab
##enance
##oph
##ingly
cham
diss
coast
flag
colour
oblig
positive
deliver
twin
exception
acquire
##ursday
bake
hug
lou
mand
##tile
##stad
thursday
##acle
uncon
lean
strate
payment
corresp
1972
neighbour
palace
corporation
##while
celebrate
nabisco
correspond
ST
attribute
dom
sie
##dr
chic
chase
unp
neg
contest
indian
explos
tourist
criticize
strengthen
strategy
STO
tail
van
wis
##uc
10000
##ador
latest
ital
district
amaz
volunt
##market
observe
texas
mathematics
fdp
poss
sir
##fa
##ers
beij
##ouch
##ized
192
abuse
farmer
disturb
knee
divorce
heaven
chairman
maintenance
##tinguish
beijing
54
lind
mu
mouse
od
zoo
##be
##hetic
##ano
stairs
chief
known
expand
onion
greater
leading
sheep
supermarket
exhaus
persua
encourage
administration
pilot
illegal
58
nav
ree
##time
##allow
recon
skill
frighten
exhib
munich
50000
ts
tank
wolf
##hib
##nesday
##col
##ara
thir
pleasant
##ousin
labour
##umn
optim
worldwide
resc
flori
ideal
invitation
islam
solid
militant
##holm
mechan
wednesday
wrestling
breathe
300
tower
ven
zeal
##lom
##hel
spite
organize
plate
gram
qual
atom
finance
mrs
##ropri
communist
golden
balance
juice
InstanceOf
70
anger
arise
aunt
cousin
jail
ox
tow
ug
##ros
##ription
##ors
##ula
##antic
191
##struct
unha
##quet
appeal
entir
classroom
insp
deter
purs
appearance
excited
snake
connect
legislation
bundesrat
fortune
atmosp
lonely
chicago
cle
der
hous
##aise
##ins
alarm
impact
scene
friendship
highly
bedroom
define
virt
climate
crowded
fundament
philosophy
bolsheviki
bos
yard
##til
perman
beh
##olet
##iling
conclusion
##iable
max
contribution
scale
##standing
depress
consideration
oppos
oppose
opponent
mainly
emerge
osaka
constitutional
diplom
frankfurt
emphas
57
fant
ros
topic
##of
##site
##ract
##ito
##orate
##ald
arena
##ido
dism
visitor
province
employment
divide
candle
violin
iii
experiment
investigate
scientific
drown
diamond
narrow
freder
len
pati
rac
tony
##itarian
##lex
##esp
##ira
##aked
lion
##adow
asyl
frame
indicate
whis
motion
eleph
skat
circle
amount
improvement
flee
comfortable
subsid
unhappy
asylum
elephant
ble
gy
iv
lost
##au
##niture
runner
register
obey
understanding
genius
entr
entry
insult
occasion
examine
convention
potential
fuel
anywhere
additional
identify
liberal
fever
furniture
fully
mirror
website
license
procedure
leonce
acid
bone
naked
excl
und
altern
##sius
chess
incred
anniversary
##lessly
defense
volume
status
celsius
convinced
rub
trea
##oom
##nia
##lection
##tta
##olis
lip
grade
##athon
##aged
penal
strict
religious
mayor
olympics
fulf
literature
sponsorship
influence
hobby
pregnant
circumstance
chamber
zealand
atmosphere
frederick
51
bay
fence
kin
oh
rude
##sen
##draw
##kel
haw
praise
intention
complic
forward
forbid
marathon
##ague
childhood
##temberg
##ovak
##plane
factor
ignor
withdraw
surface
anxious
delegate
90
gmb
ly
rush
sock
tip
##han
##mark
##omas
grab
cler
carol
##apse
2000000
abol
respond
iran
deeply
stockholm
initiative
integration
investment
rescue
gmbh
nut
nail
row
rom
tiger
user
##eable
spare
##anese
thick
thomas
##edient
instruction
##iev
crack
##ified
columb
cheat
warning
airplane
image
actress
facebook
achievement
cruel
software
essential
kilometer
kohl
opposite
bru
ep
royal
tol
##atter
##stic
##down
##gain
permission
##ulous
##isc
##olic
##ats
prose
##igence
grave
##verty
brave
##econ
interf
scot
bott
##lla
desert
skate
daily
orient
practical
cellphone
civilian
physical
install
executive
territory
patience
fas
fond
jean
##rol
##ines
##ica
##ube
1000000
ina
reaction
acad
##ogen
distinguish
cheek
1971
headache
##aker
following
##mination
experienced
decrease
neighborhood
limited
betray
sweater
terrorist
concentrate
unfortunately
fundamental
47
53
dent
ped
unt
liar
##ologist
relate
poverty
##ariat
presidential
steel
powerful
princess
admire
##ylene
pronounce
entirely
objective
bury
hos
hyp
mut
tin
tag
##rem
##heim
##ically
shame
shadow
unc
atl
guide
badly
##orize
fishing
straw
criticism
david
##alogue
agriculture
##econdition
dy
hes
tit
##ture
##nes
##tise
##urer
##anta
##stra
##sert
shock
##ester
devil
##rehen
interrupt
##alley
glove
##arily
confess
depart
defin
beard
humanitarian
peaceful
compete
okay
attract
bourgeoisie
mobile
frequently
persuade
permanent
gym
56
dye
egy
fif
pope
sue
valley
##yard
##ames
##ino
beef
##sitive
stretch
rely
##oko
weird
perfectly
##eva
foolish
acet
obviously
cabin
kidnap
rabbit
unemployment
clever
egypt
bat
era
penn
##aign
##cow
##rative
thail
shot
shave
greet
alb
laender
##iam
##eck
##rover
##umption
monkey
reveal
critical
decade
jews
photograph
impression
false
journalist
uncons
thailand
gall
##uti
##icip
##force
beck
##oter
##gram
stream
pros
prolet
shri
nep
prohib
schol
diary
symb
meanwhile
musician
seize
mistaken
freeze
honour
apart
##venth
fuji
celanese
municip
moscow
historical
pants
micha
thirst
##ropriate
bottom
cath
five
hop
pond
##sw
##iber
##par
##mon
beg
##ota
intel
comprom
relief
##000000
classmate
consent
developed
bargain
madrid
##mens
demonstration
item
kate
lower
nom
nancy
pipe
##kind
##sky
##hance
##take
##rison
##els
##eland
190
unknow
carrot
##assy
adapt
context
polite
enhance
swear
assign
empire
consult
instinct
musical
severe
brief
estimate
email
complaint
version
particularly
independence
split
commercial
prosec
agr
but
cd
called
dub
fuck
sac
session
##gate
##vative
##ür
##alt
##osl
##uable
Precondition
##omed
ingr
prince
servant
which
background
1970
skirt
provision
summit
border
postp
autumn
loan
drawing
embassy
collapse
banana
flex
urgent
soviets
dispute
apparently
conservative
explosion
ugly
inaug
symbol
intellect
ease
ms
rar
trib
##oat
##tial
##stery
cher
chain
charm
inse
instance
shang
##reen
expulsion
resident
crop
moral
nobel
greens
typical
palm
##porary
railway
theref
unknown
mud
nic
rare
tight
##ux
##vention
lif
margar
reserve
catal
glance
transform
dirt
expectation
purch
##play
1942
intelligence
journey
predict
##stein
bosnia
scotland
postpone
bitter
dust
##hus
##fication
##word
personnel
##urd
chan
plat
comprehen
bug
lovely
minority
accust
##oriz
collection
doubles
misunder
accomplish
attractive
chapter
norway
55
64
bless
pose
pep
peel
welf
##aid
##sburg
##zu
##walk
##ales
##atia
thus
acqua
adver
blan
stress
crush
longer
capture
delight
emotion
wastewater
marion
embarrassed
clerk
michael
ingredient
margaret
welfare
acquaint
fog
must
pity
##ront
##wa
##war
##ced
lamp
##berry
sofa
expense
colomb
desp
desper
passion
visa
overcome
solar
shortly
wooden
campaign
##bourg
discovery
calculation
##glass
clothing
alternative
compromise
therefore
75
rod
tt
voter
##iest
##roc
##ga
##mun
##eague
##eth
##cher
cond
device
carbon
##ustain
##rete
elev
imper
substance
processor
extent
infin
response
characteristic
harv
imagination
electricity
croatia
##habit
italian
florida
atomic
scholar
couch
ol
sake
sustain
vice
##het
##rian
bee
##ateful
chile
inhabit
review
##ruption
##tification
magn
##tically
quar
##aging
aller
reflect
250
rainy
vision
deputy
proceed
seven
avon
##hai
marika
##bourne
nearby
colleague
bathroom
shelf
dentist
purchase
channel
cub
ded
dare
et
fame
ker
pure
rene
wu
##ca
##bach
##arch
##ocked
##inal
##ativ
trap
seed
exact
pride
##enna
scen
saint
slide
telecom
careless
processing
viet
nearest
valuable
generate
##kaido
lux
audit
demonstrate
unsee
volunteer
accustomed
hok
jam
mas
rider
vul
vain
##king
##sk
##su
##ran
##lim
##bu
##arity
##vey
##isa
##ema
unus
component
robert
expel
dialogue
toile
boot
flute
geneva
classical
promotion
painter
faction
##ervation
ceiling
assistant
philosopher
immigr
constantly
##stadt
siemens
linda
bleed
entrance
hawai
intellectual
blanket
toilet
alex
burg
fee
rous
tort
yell
##sp
##dam
##rish
##cia
tomato
##eter
scare
accent
medal
drag
##graphy
violent
physics
angel
mystery
revenue
rarely
colombia
vietnam
objection
mine
ric
venture
##hard
##rad
##matic
##onia
##rint
##tto
eval
##irate
##utation
##apolis
##rect
league
##raft
controver
flash
relieve
capable
concrete
drum
curtain
##iko
load
competitive
##ould
settlement
implementation
typh
picnic
album
platform
##glasses
elevator
cease
ey
james
pp
tale
##aire
##iri
##wood
##isy
##asp
construct
grey
fra
maid
##ecture
disa
impose
switch
upper
##eldorf
operating
weigh
nato
conven
creation
suspicious
cattle
sensitive
statue
identity
breast
further
obvious
cinema
explode
spokesman
indianapolis
columbus
cabinet
shanghai
unseeded
hokkaido
ak
dome
etern
honey
would
##utor
##uring
##hand
##rant
##bas
##ita
spider
##och
##ulse
##eeper
##emon
##atre
##iro
liqu
plain
rein
conclude
grateful
unlike
compose
march
coord
coach
patter
entertain
subway
deaf
##orial
illust
william
manufacturer
innov
currency
injured
aspect
supper
rapidly
academy
hawaii
edge
fox
mc
##ograph
##sa
##tre
##ix
##zig
##wn
##wig
##stan
##stone
charter
##sey
##iece
##exp
enl
enorm
appropriate
synt
##erttemberg
enthus
barcel
horrible
six
sheet
universal
##box
establishment
calculate
basketball
wisdom
amazing
exhibition
insect
wuerttemberg
enormous
barcelona
mum
##aze
##so
##va
##ja
##ameter
##usive
##osis
therm
##quarter
route
mars
resolve
aggr
commitment
absence
preparation
1945
purple
jackson
automatically
broadcast
towel
catholic
renew
bang
nick
panda
rot
personality
##rier
##ocate
##reas
eventually
inher
grace
compens
root
dislike
helmet
belief
idle
assess
lately
sunglasses
headquarter
incor
barb
##azz
closer
closely
leadership
quietly
height
kilo
wealthy
fulfil
inhabitant
roussel
30000
fry
gal
ho
kos
ray
rog
##aci
##dn
##rator
##lad
##ulf
##ivery
stead
county
resort
crown
eleventh
slovak
corp
subsequ
battery
philipp
stir
urge
swedish
resistance
terrorism
cycl
consciousness
pursue
installation
hesitate
unusual
ppv
Aff
ah
hid
jun
lot
ober
rul
tough
wipe
##ku
##eti
##ben
##gb
##hew
##lete
##alen
thro
##ille
##chant
##rum
gray
deceive
belt
float
isdn
substant
##obile
lightning
delivery
##ibly
purse
associate
robot
originally
arabic
regularly
loudly
portugal
odd
thirsty
desperate
Affector
cough
fate
fold
ling
pear
pace
pier
rational
##ault
##eam
##test
##enburg
##osh
##ception
ever
##iration
shak
##oster
along
wrap
leip
##agger
screen
##asty
tob
awful
sleepy
theatre
considerable
accordance
merely
tempt
elder
favourite
jersey
emphasize
fantastic
dismiss
unconscious
inaugural
disagree
cure
dict
jul
tib
vase
##oil
##off
##ao
##sti
##cope
##put
##gic
##enh
##enos
##alia
##inalist
##oly
##stairs
haz
##ingen
##igel
instant
##icially
shit
unity
alph
leap
##agen
teen
greatly
preci
effici
defence
species
sidewalk
hunger
herbert
candy
description
coward
destru
liberty
grind
gradually
sexual
astron
hammer
saxony
curious
ordinary
louis
possess
ignorance
abolish
municipal
cherry
comprehensive
headquarters
leipzig
3000
63
ari
eight
hay
lover
ment
som
wales
##ycl
##ts
##back
##fall
##lee
##ura
##urance
##orb
##person
##uad
client
buenos
contem
##agon
resemble
opening
reputation
sword
symp
##ensky
aires
institute
solo
proportion
emigr
electron
irre
temple
denmark
furi
spiritual
jewel
generous
transportation
statute
ridic
##raine
adjust
tiny
acetate
prohibited
bargaining
unlikely
enthusi
dgb
horiz
nag
phen
rat
ram
##uer
##hal
##well
##wise
##aine
comme
exci
##acco
mankind
faint
display
reservation
preserve
accur
recall
waigel
##ario
classify
noisy
monitor
humanity
##lies
violation
approval
polyester
laboratory
partnership
occupied
bolshevik
kilometre
archite
athlete
martina
slightly
virtue
prosper
torture
dow
if
mort
mug
rough
tent
yield
##craft
##rent
##eant
##rif
spy
##urally
betty
##ished
##ola
##eline
proof
##charge
##asm
chat
organisation
trace
unl
unique
reasonable
##ountain
composition
comprise
indones
motiv
accom
consumer
dawn
contrad
keyboard
heavily
elim
radical
selfish
dependent
garage
automobile
integrate
exhausted
houston
kerensky
hidden
tobacco
exciting
indonesia
cable
fountain
lecture
pup
zone
##sely
spa
##ishop
consec
graf
##enda
laughter
para
sco
useless
phase
salad
ireland
silly
iceland
magic
meg
unification
miracle
malay
sailor
whisper
pattern
tibet
phenomen
65
77
creat
dick
gay
ivan
jes
mask
nerve
##een
##zer
##erable
being
##uly
##isher
##tine
stab
statis
thor
inqu
##utch
unb
alp
also
compari
leather
priest
buc
20000
colon
chest
poker
entitle
sunny
overs
submit
distribution
kindness
globalization
melbourne
migr
initial
fluently
saxon
dima
grammar
complicated
pepper
typhoon
domestic
liquid
creature
comparison
ax
bull
cock
dump
kim
nons
wander
##lon
##heast
##rival
##ribly
##isp
string
##etent
trend
arrival
##istle
frog
alice
bruss
officially
reliable
colgate
surge
actual
communicate
vienna
nearly
convert
participation
harmon
bullet
voting
widely
larg
spelling
semif
negative
depressed
nephew
quarrel
allergic
pupil
consecutive
brussels
59
fake
gaz
giant
mens
rival
##uan
##iel
##point
##bage
##levant
##riting
##order
##opter
trev
shade
shocked
##esty
quote
screw
toe
sla
assure
moroc
isol
milan
respective
##obe
contrary
opera
darkness
starve
concerned
sports
##load
##weight
psychology
humor
congrat
administrative
devote
talented
behalf
framework
incredible
treasure
penalty
interfere
charming
roger
throat
phenomenon
menshevi
trevira
62
bend
gam
gang
hub
ut
ze
##iary
##gage
##wl
##lene
##tel
##opher
##icopter
##neral
##oline
stor
trunk
rever
conqu
neither
carl
acknow
fork
looking
priority
paraly
discip
polyp
helicopter
restor
swallow
whistle
after
regulate
producer
sunset
overall
sew
filament
provis
critics
distribute
emily
locate
merry
exceed
temporary
funeral
valent
variety
##awa
senate
vegetarian
hello
franci
concentration
primary
pollution
tunnel
arrangement
qualified
lenz
##munication
alphab
acknowledge
85
cos
cope
hir
jan
jones
ought
##uese
##to
##rati
##lova
##onish
##right
##ttoo
##omy
##eeze
##antly
thunder
ink
reader
arbit
exit
excess
shore
constra
unic
##ardo
mah
##umi
186
disg
joe
expose
##shot
whale
phr
minor
realise
##allen
precious
##aries
outdoors
signal
absorb
merchant
arts
holy
necessity
christopher
1944
hallow
notebook
karl
tattoo
rhine
portuguese
navrati
proletariat
flexible
telecommunication
##basti
provisional
constraint
navratilova
73
bik
hong
mere
pitch
rio
santa
wal
wct
##cted
##eon
##ges
##fly
##jud
##eare
##cience
beings
##aya
##andal
gran
compar
sovere
##angle
wrc
contra
impatient
resid
##ighten
##roach
highway
supplies
consumption
agenda
##gger
##ibi
naturally
##born
islands
democrats
suspend
honesty
physician
naive
shelter
engineering
controversi
convenient
oberlin
lingu
shakesp
paragraph
jesus
DI
bible
cant
cycle
coss
either
hed
lor
lemon
nod
naz
pole
qua
rou
tension
vary
##uct
##ially
##rd
##itable
##ophy
##store
react
exclude
unexp
alleg
ache
breed
##ima
forum
##assador
adela
displace
resin
swing
criter
african
endanger
breakdown
terribly
seg
retain
##orious
drawer
suitable
superior
suspici
miller
southwest
verb
robin
melt
budd
ambassador
railroad
legislative
punishment
ethnic
extraord
properly
lincol
##oslav
dedicate
fraud
scott
morocco
telecommunications
controversial
shakespeare
DIS
unexpected
adelaide
lincoln
69
auck
dime
dign
gor
jet
sting
##cut
##vis
##onde
##tis
##emic
##gre
prague
##une
fab
latter
##amin
expans
smugg
##shop
scold
sauce
keeping
##neo
surg
skip
efficient
specify
brill
draft
estate
revolutionaries
container
cooperate
collab
massive
puzz
micros
primarily
juggle
dynam
misunderstanding
infinite
inherit
hazard
ridiculous
bucket
polyprop
auckland
expansion
airl
cad
dall
dum
gulf
hil
hint
heal
meant
rig
sour
sate
toss
##tal
##bery
##mid
##wort
persec
stuck
stability
every
incon
##ado
clin
albert
label
activ
interior
##inton
participant
parameter
blast
blush
blonde
sweep
dessert
confront
discount
##ucky
steff
critic
reporter
salv
hearing
workers
northwest
scratch
negotiate
ukraine
tune
fascin
dictator
nonsense
phrase
cossack
polypropylene
dallas
meantime
66
amp
bin
bind
cul
crew
hund
lord
lugg
mart
rxxx
sigh
slee
xxx
yug
##ken
##kin
##uko
##stick
##imp
##cr
##card
##ched
##encing
##atri
stake
grav
mans
fro
alike
alibi
laund
matt
##ami
expend
happily
appeti
smoot
offend
##iseum
unite
##iled
flame
coliseum
previ
prevention
##arin
decisive
attain
##scape
monster
horn
advis
costume
somewh
crawl
1969
moonlight
kitten
lucy
preventive
sanction
senior
assemble
butterfly
recommendation
torneo
extensive
obligation
maximum
titan
philippines
mensheviki
halloween
luggage
somewhat
bil
bse
cu
cale
cart
cage
cord
fist
jazz
lung
pirate
rif
sed
vast
##ks
##uge
##pet
##bow
##mod
##riger
##ared
spill
bef
plut
##eff
rebel
shark
clash
delete
alien
ford
scary
guid
##llite
undertake
refriger
invention
assen
password
amend
terror
productive
again
incomp
filter
##minate
horror
distract
infra
specialist
dancer
##evo
toyota
guilt
logic
textile
athletics
mechanism
racquet
subsidiary
definition
luxem
synthetic
soloist
eliminate
thorough
largely
satellite
smooth
previously
Cons
hoc
kl
soph
tari
utter
von
##uch
##ais
##suit
##date
##rade
perpet
##lend
spade
##ani
##oration
steam
reward
comrade
##structure
##actory
uncom
150
lag
artificial
disorder
bookstore
##ssors
accus
wells
formal
elector
##risb
turnout
confuse
genu
terri
consol
conscience
theore
increas
swimmer
barrel
##roph
detain
charles
custody
scissors
baggage
correctly
privile
scarf
introduction
execution
pigeon
logical
surrender
resignation
slipper
handed
oblige
solidarity
burgl
illustrate
teenager
horizon
gamble
storage
hundred
yugoslav
Consumer
tariff
ai
cave
dumb
dutch
hom
kong
kenn
kobe
nik
pow
sole
tel
vict
yoko
##uel
##wr
##imed
##eav
spoon
##osity
##ateral
stable
##oda
organise
truly
reign
intensive
##athy
bloom
helm
household
update
reluct
obs
governmental
remote
notification
suburb
##sco
##oril
reception
landscape
##break
infection
collective
##hesis
estoril
twent
##grapher
##quate
##quez
packaging
gunshot
simon
garlic
textbook
arabia
successfully
panic
##oxide
execute
jimmy
juggler
ranking
revenge
dissolve
oxy
junior
destruction
furious
francisco
nazi
surgery
##worthy
steffi
laundry
rifle
electoral
68
61
bunch
destination
oven
py
sé
sar
sens
vene
##sed
##pe
##print
##mal
##zb
##ero
##iture
##arn
##keting
##asy
inner
##ultane
##esseldorf
##una
laf
ank
rotter
marc
##abul
swift
singap
##roe
reck
slap
waiter
confident
morality
noble
folk
sever
continuous
medium
##ibility
amuse
economics
shell
##hylene
loose
sufficient
recognise
fairly
simultane
chemistry
noted
combat
combination
through
patrol
behaviour
essay
innocence
puppy
astonish
interpretation
duesseldorf
validity
exclusive
strawberry
efficiency
criterion
brilliant
salvador
appetite
rotterdam
bm
bare
colog
duck
gap
lat
pause
sab
theme
tap
tna
tai
util
wire
witch
##ae
##tle
##boy
##tious
##itary
spoil
##estimate
##peror
##cede
##ceter
##otz
##emn
evert
evident
exile
##actor
suck
workplace
##ipt
##udi
parrot
assurance
transition
survey
##00000000
terminal
depth
nightm
monet
baron
deliber
socialism
membership
receipt
emperor
deadline
envy
creative
deutsch
##holder
grounds
burden
violate
scarce
##hemical
taro
occupy
anticip
hydr
exclaim
mutual
departure
kidnapper
prosecutor
sustainable
##hetti
etceter
conquer
restore
##bastien
frozen
expenditure
cologne
etcetera
bit
coc
gest
hig
ip
jose
kaz
led
og
pod
rug
riot
##ography
##ho
##name
##list
##bi
##fo
##fred
##ör
peru
##olive
haunt
##cho
organic
incl
trophy
##unge
##aco
carriage
frust
soil
bloss
envel
helpful
homeless
recruit
formally
flav
skil
attach
##cidence
inside
deploy
##phan
forever
##itious
bride
bankrupt
irr
safely
technique
closet
painful
1968
privacy
equally
heb
murderer
urban
juan
paulo
aids
corporate
poetry
recovery
retirement
menu
fourth
engagement
casual
pillow
detective
corresponding
derive
kinder
palmolive
cuba
immigrant
entertainment
ruling
elderly
herberts
mental
commence
contrast
extraordinary
everyday
before
refrigerator
accusation
sébastien
singapore
nightmare
blossom
envelope
bishop
ced
cass
csu
fencing
ig
ku
kans
made
mik
por
rear
rural
sip
sout
##df
##ii
##eg
##look
##vy
##onal
nowhere
##rill
splend
##org
##orting
##tinction
##elph
##chief
cha
trail
tremble
shallow
##adelph
deer
##ndar
makeup
185
##ricane
stroke
saudi
reflection
slave
##ounded
hurricane
developing
select
forehead
##oven
trigger
affairs
susan
##onym
excite
representation
twitter
philadelph
##rates
worthy
1960
melanch
garbage
designate
patri
pigment
##coming
1938
splash
possession
divorced
optimistic
determination
fifth
becker
##parent
imperial
precisely
accommod
statistics
alphabet
suspicion
dignity
calendar
infrastructure
yugoslavia
oxygen
philadelphia
breme
eb
hind
jord
leak
lap
might
mild
nas
pile
tum
tak
tape
vin
valen
wc
##dri
##nati
##ras
##mail
##wan
##ann
##cide
##ethylene
prot
##asil
traged
rej
relevant
neur
decent
partly
##oya
parti
marketing
outcome
outstanding
relativ
##tingham
passage
feder
constit
##ushi
secretly
apology
amaze
##apping
nottingham
harsh
commissioner
layer
caf
progressive
loser
polyethylene
principal
encount
significance
occupational
acetic
mixed
remarkable
prayer
commerce
incredibly
toler
dubai
luxembourg
genuine
increasingly
burglar
southeast
bremen
wcw
tragedy
constitu
99
core
fel
furn
fare
fallen
gear
gdr
hans
jog
kurd
lit
lis
rust
sul
sushi
vanish
ww
ware
##ode
##keep
##lor
##bank
##gel
##mont
##mund
##jban
##win
##ão
##tist
##rine
spark
stain
goog
measurement
worst
worship
exagger
manif
provi
##quito
alter
working
parad
polish
serb
scheme
indeed
indisp
creep
chew
warmer
internee
endeav
socrates
beginner
##werke
corn
##ako
protected
conceal
distant
adventure
differently
translator
##ava
curry
easter
merced
berber
lojban
committees
robbery
millionaire
normally
##awn
fewer
christianity
ambitious
whether
cloudy
benz
mosquito
sharpen
significantly
##cinnati
brandenburg
tanaka
juggling
pinoc
kidnapping
##guard
larger
reem
sacrif
condemn
innovative
endangered
buddh
hockey
theoretical
encounter
provider
mercedes
bern
fiction
jar
karate
oak
pc
rocket
seal
squa
vig
yun
##nut
##cup
##ree
##bell
##ving
##vene
personally
##ript
spag
##anim
##opp
##inna
##osph
##ised
stub
##elle
##ilov
liisa
##ometer
shift
grap
##very
##rection
brow
forces
maker
discharge
enforce
imprison
##rical
indiff
prejud
sympt
gene
##viation
missing
mush
muscle
retail
barn
legend
##tiveness
modest
virus
deadly
##garten
pianist
recognition
miserable
damn
cooper
justify
initially
fluent
persist
instead
petersburg
interpreter
apparent
1000000000
supreme
ecuad
gaze
frightened
islamic
romantic
##zuela
scenery
##build
electronic
semifinalist
comparable
duma
privilege
venezuela
hebrew
jordan
indispens
sacrifice
spaghetti
symptom
ecuador
82
aus
dive
hö
hike
loe
mall
ron
ske
sample
tam
tab
wool
##sman
##sylvania
##nsion
##rog
##zation
##writing
##rily
##ulose
##ulouse
##osit
##olo
##ston
##chair
##ourish
limb
chip
inev
##unal
gra
##idy
unpl
workman
compan
compound
blu
dioxide
##oodle
toulouse
##tence
warrant
##ensus
imitate
discri
sorrow
acceptable
conviction
irres
auton
rocky
1966
copenh
robber
fairy
punct
bombing
occupation
publ
bulg
quarterf
anxiety
coincidence
embarrassing
keen
agricultural
cincinnati
curiosity
extension
lenin
subsidy
atlantic
pennsylvania
tribunal
acquainted
despise
harvard
evaluation
williams
enlarge
accurate
prosperity
airline
powder
higher
splendid
google
copenhagen
apt
dar
dull
foster
gently
kah
krem
mow
nest
nine
pump
rati
rud
veter
##uk
##iy
##iting
##rous
##race
##bur
##bul
##bre
##bike
##ering
##ania
##urt
##ora
##icit
##ising
goet
##chio
orphan
##edia
##asting
120
reactor
unn
unanim
nev
neut
##aped
alfred
formed
disney
polit
##abri
##agne
residence
strateg
output
presid
motive
formula
##nko
regime
conform
suppress
deposit
muslim
anna
##umph
monito
##ciliation
forecast
brian
triumph
otherwise
salvation
markup
enterp
hermann
prepared
ladder
ern
announcement
originate
facilitate
weakness
##xxx00
harmful
hostage
allies
digital
wrestle
devast
taninna
relatively
diplomatic
lyon
shrine
harvest
temptation
residue
sleeve
cedt
manifest
pinocchio
indispensable
kremlin
monitoring
5000
bes
eager
gorge
hut
lob
mult
portion
rage
seas
sib
tense
wink
your
##ait
##sd
##lier
##fu
##flow
##zog
##án
##rim
spec
##uted
##orus
##inent
##ivor
11th
inch
insec
##ello
shu
grape
unm
bra
bump
leban
offensive
schul
scandal
engaged
abst
abund
sach
recycle
undergo
precise
##acher
backward
ending
constitute
notify
memorize
deputi
capability
restrict
johnson
moderate
businessman
##sterious
nationality
secretariat
haircut
strongly
herzog
silk
lottery
colorful
verd
educational
garrison
cellulose
luis
trading
elementary
satisfactory
mayuko
disappointment
initiate
crude
mysterious
forth
spokesperson
diplomat
carolina
acquaintance
eternal
incorrect
nagoya
isolated
routine
cadet
rxxx3
monetary
kansas
prejudice
lebanon
40000
70000
96
bak
bribe
cite
dol
destin
deed
ee
eve
fid
halt
knit
loyal
mole
nit
ruth
ted
vit
voc
weep
##ski
##ctic
##pr
##bag
##ford
##mn
##mur
##zo
##onium
##ridge
##ala
##esome
##ourn
##otte
strive
##etorn
plead
tretorn
125
suzu
workshop
compel
competent
interval
partial
disarm
margin
johan
imply
pave
serie
diale
commiss
above
upstairs
phosph
mineral
recycl
teles
underestimate
corruption
consensus
killer
##ounder
barrier
stef
parking
revol
snowy
westph
convict
mercy
demanding
1946
danube
regards
burea
educate
fatal
##lenburg
administer
wheat
installed
faithful
dominate
exhibit
housing
compensation
##tsma
gaza
plutonium
slippery
##imedia
taiwan
reemtsma
mushroom
companion
enterprise
multimedia
deputies
900
cric
fried
kel
lena
meck
oz
pud
pork
puri
recip
sant
são
tes
vlad
wag
wwe
##cor
##rue
##rod
##piece
##for
##field
##maker
##vise
##erent
##rie
sphere
##inery
##ulp
##oleon
##istics
##olas
##real
steak
##elim
##ila
##ilize
orl
##gang
##ooting
##essive
##unci
grain
##idation
cliff
clinton
##apy
##exual
disper
marvel
marley
blond
resume
handwriting
croc
governor
obama
visual
consume
theft
headline
deprive
ago
profession
motorbike
circus
raid
##liest
stella
ministers
acceptance
arrog
absurd
camel
fridge
sneak
snap
descend
1956
unfair
polymer
##lenn
insurrection
##fortable
functional
ambul
persp
literally
psychological
replacement
profitability
cheerful
napoleon
unemployed
silverstone
fortress
henry
kilogram
architect
surgeon
harmonisation
excessive
gravity
uncomfortable
anticipate
warehouse
stubborn
cooperative
neutral
commissar
cricket
mecklenburg
72
bild
brisb
erect
feather
founder
gru
hiv
korn
mac
peak
qaid
rand
rape
sket
##sia
##td
##ón
##riction
##enheim
##oma
sto
##ontaine
##iliate
plunge
worn
shin
uneas
##ardon
brake
ander
intermediate
interrog
enact
coating
##abeth
##shine
athen
guin
presc
##roit
await
insight
overweight
overlook
memph
memorial
deport
restriction
basel
default
monaco
##tivate
costa
detroit
specialty
dealer
hatred
volley
characterize
##ificent
connors
1952
satisfaction
##umbent
mexic
feis
diagn
disposal
panel
survivor
observation
##hran
frequent
ultim
louder
domin
voluntary
tsay
wolfgang
agrevo
reserved
emotional
magnificent
##archy
alexander
reinforce
nickname
slovakia
subsequent
enthusiasm
downt
absorbed
dimension
terrify
ankle
deutschland
kindergarten
melancholy
loeb
inevitable
ambulance
brisbane
kornilov
qaida
memphis
volleyball
400
bå
bamb
dil
dread
echo
gil
jak
kant
lick
null
niece
pess
pony
pomer
pulse
pardon
vet
vend
wang
yog
yumi
##aut
##sick
##hi
##gi
##fl
##whel
##era
##nty
perish
perceive
perception
##leben
##rink
##rilla
##tell
##organ
##stacle
thread
prelim
evac
##ington
##eder
##igible
rex
##pple
greek
clari
unclear
carn
15000
frag
alle
##reck
buck
disad
marse
happier
##eans
impulse
serv
what
abn
##ernob
tehran
situate
chef
obstacle
sunshine
visible
killing
restru
continu
protective
presentation
propag
##oria
##ories
cryst
extrad
affection
supervis
herr
republican
judy
err
surprising
villager
murmur
1962
index
photographer
##uffle
melted
impressive
crucial
rosetta
inflation
celebration
commander
hunter
alcoholic
necklace
printing
tsun
kinkel
ignorant
titlist
penny
hopman
vulner
evaluate
subsequently
pierce
unlucky
carlos
hilton
twenty
lafontaine
frustr
höchst
unpleasant
goethe
telescope
sketch
båstad
pessim
preliminary
##ernobyl
800
bore
bord
camb
dili
je
lee
lod
lun
noodle
pi
pap
punch
rhy
uzb
vel
ye
##kov
##yn
##town
##rence
##lie
##gov
##fit
##ntag
##ented
##eaux
##arder
##uten
##icy
haiti
hasti
goose
prec
prosp
##iry
##asc
##ignty
arth
##ached
clue
asc
##estyle
intent
bron
brasil
##rag
soap
adole
blog
smol
handker
saw
mining
cataly
grandma
recrea
boast
boris
flaw
invasion
transmission
##ertaint
georg
##ensity
isaf
overwhel
##aki
##aking
incumbent
explore
mature
prompt
blackmail
barr
barber
specification
raci
delicate
monthly
sonntag
tablet
operational
andy
charity
merge
##plier
basement
marino
volc
denver
decorate
snore
valer
collar
excel
dishon
kenya
separ
identification
angle
multiplier
myth
bidding
spectator
wilson
depression
abolition
tolerate
catalonia
transformation
assessment
somalia
paralympic
discipline
disgust
sovereignty
gesture
relativity
exaggerate
bulgaria
strategic
sibling
stefan
tsunami
bordeaux
diligent
uzbek
hastily
handkerchief
##ertainty
71
fade
flour
fern
foul
heel
ib
ide
kent
lapt
pad
rans
um
voy
weed
xia
##oing
##ailed
##hd
##hor
##rust
##bab
##var
##woman
##mes
##metic
##tible
##tish
##entive
##arus
##oral
##inder
##estor
bever
beth
##iser
##iveness
##grade
##atti
stun
##lywood
goat
pret
##izabeth
##edo
##edly
chill
trash
comic
greed
manual
clown
unw
unbel
neural
##aple
##verb
intense
compos
mam
188
intervene
roar
exposition
happiest
gerhard
offen
childish
scope
abound
abortion
##ightest
minded
recur
slightest
awar
soci
surely
words
finn
overtime
overtake
subsc
sequ
##lessness
##oka
monop
peacekeep
communism
shortage
landl
penins
##coat
majesty
fighter
artois
shed
elizabeth
compliment
practise
philip
competitor
dani
popularity
researcher
massage
cereal
bald
advanced
juris
grin
##wehr
##ungle
calcul
bundeswehr
microph
spectrum
pakistani
reconstruction
reconciliation
rossi
nuts
gallery
nomin
assignment
advertise
##atives
carelessness
##ranean
coordination
compensate
louisville
motivation
congratulate
unicef
gorleben
activist
guideline
podium
rugby
excitement
federer
yoursel
schulte
arrogant
athens
ultimately
pomerania
laptop
microphone
95
aug
arist
brick
cam
ein
jungle
kalle
mate
overn
pion
sore
tac
yet
yawn
##keeper
##hical
##ctivity
##lori
##fia
##és
speaking
##isible
##etime
thous
thrill
106
##omet
##ionist
grati
laz
anl
##asso
prior
180
disgu
cotton
countryside
strang
dial
homeland
abd
cratch
mini
mode
backyard
confusion
americ
profile
aircraft
##tedly
complement
deficit
addic
mediter
spending
##orian
oppress
advocate
detailed
##ype
traveler
godó
postal
richard
carpath
estonia
marine
stupidity
finalist
struct
##ermo
harry
palatin
helen
civilization
artistic
ambition
czechosl
electrical
theres
relaxed
biology
rhin
spectac
delegation
neglect
exhaust
navy
##coli
mechanic
##tility
racket
fulfill
hypoc
gymn
steadily
substantial
astronaut
fabric
titanic
simultaneously
gorgeous
random
##govina
arthur
uzbekistan
yourselve
pioneer
thousand
cratchit
mediterranean
palatinate
czechoslovak
bj
dorm
dres
eag
fis
kan
ost
ong
tone
vivid
wreck
##oi
##kward
##igan
##nik
##cour
##cere
##rus
##lause
##funk
##via
##vantage
##tie
perth
##rin
##aron
##ttler
##ormer
##orney
##esight
##ulco
##osaur
##isition
##isite
##ivable
stove
gover
proposition
##izer
chernobyl
plural
inci
tramp
trotz
reun
rebuild
worm
##herd
conj
click
prob
##apulco
alban
##rey
lauri
intim
acapulco
broc
brno
compul
##illa
making
sob
intervention
particle
distinction
applause
leone
repress
scatter
outbreak
comma
catast
cathed
format
hardship
##licit
invade
investor
awkward
internation
##zegovina
transit
regain
syn
diego
geograph
statesman
attentive
smaller
incur
solvent
monica
provin
accidentally
rattle
legi
##ovo
metall
considerably
australians
##orium
trofe
dining
authorize
democrat
representatives
herb
herzegovina
1948
decree
embrace
honestly
mete
turtle
##isticated
salesman
liberation
dispose
should
janeiro
humid
193X
donate
microw
institutional
##romo
chopstick
detect
mandate
vanity
venue
strictly
complicate
hostile
hypot
briefcase
lifetime
misunderstand
##rochemical
proceedings
##stanbul
rotten
incorpor
steady
enthusiastic
slaughter
canton
puzzle
rigid
clinic
fascinate
binding
hydrogen
bankruptcy
nasa
buddhism
yunker
destiny
vitamin
disadvantage
marseille
crystal
smolny
voyage
finnish
overnight
ongoing
governing
trotzky
catastrop
cathedral
antagon
ade
cens
cyp
dag
fancy
hik
istanbul
koo
lane
meas
pas
pist
rue
ramp
stin
sher
sack
sier
seld
tang
tick
tender
wür
wounded
yam
zionist
##sl
##hama
##iac
##lea
##laim
##bec
##fortun
##miversary
##von
##vial
##ée
##erted
##itude
##amen
spar
##ocity
##alem
##eny
##enroe
##usalem
##opia
femin
##olly
##storm
##onto
thumb
##irable
##odile
##asbourg
chlori
trous
reich
##eller
arouse
exem
sho
shr
##ades
##endum
alger
buff
soar
adore
parade
paralle
##angar
apprent
finding
strasbourg
athe
running
realistic
formulate
flip
##close
refuge
assumption
weekly
gender
attached
seattle
insane
##scar
firef
selection
completion
unions
peacefully
extrem
commune
##xture
##code
sickness
petrochemical
postcard
products
merger
elab
downstairs
download
campus
1941
1943
masterpiece
misfortun
1967
vacu
gunman
1950
queens
sensible
cruise
equality
slammiversary
observer
retired
multiple
brighton
analyze
willingness
##hren
biological
illegally
mathematical
jerusalem
picasso
rubber
ohio
oriented
fifty
consultation
lifestyle
dragon
innovation
mcenroe
pearl
instantly
mortal
malaysia
slavery
dictatorship
yokohama
skilled
1855
tolerance
furnish
bluem
publisher
recycling
westphalia
##unciation
crocodile
downtown
bamboo
valerio
ransom
unbeliev
offenbach
awareness
sequence
laurie
broccoli
microwave
trousers
misfortune
600
88
98
97
93
bn
boo
bun
bio
dine
diver
dough
gig
goss
hip
jorge
kite
kling
lov
mend
mold
mong
niger
oct
pip
sow
tease
tidy
vine
vital
##yong
##iously
##bs
##bad
##grim
##feld
##mad
##matically
##vail
##xim
##zburg
##ód
##hear
##itan
spicy
##orp
##orse
##opard
##cep
stair
staple
goya
##ilder
##char
evolution
lim
##rude
##essary
##utz
##unity
clap
asian
##estrian
proverb
##ieval
fax
lamb
acry
##imir
newton
##illip
##ecessary
187
distinct
exped
##sify
schles
swell
hometown
outer
phillip
tofu
accum
roommate
recession
boom
waist
flor
198X
colony
beating
inval
invisible
highlight
corrid
supplement
iso
profound
attorney
##vić
millenn
discont
##akh
beautifully
daim
prominent
blackboard
medieval
signature
##resh
metz
thankful
affirm
dinosaur
andre
infer
specialize
curse
technician
marie
greenhouse
bundle
##boarder
1940
judg
snack
machinery
regardless
harbor
cowboy
melan
petty
gasoline
mixture
mailbox
drastic
survival
contents
bully
inventor
putin
annoyed
benson
therapy
pilgrim
commandant
cyan
##ienstadt
unfortunate
trumpet
wheelchair
journal
unpre
amazon
communists
inspection
fantasy
definite
proletarian
sacred
despair
sixth
thermal
corpse
contemporary
architecture
malaysian
alps
valentine
karls
hedge
inconven
helmut
##abulary
scarcely
haunted
indifferent
punctual
unnecessary
dolph
vocabulary
recipe
vulnerable
bronze
mammal
nominee
theresienstadt
provincial
trofeo
sierra
algeria
gossip
schleswig
corridor
millennium
500000
67
bre
bog
bcr
cuc
dun
dort
dup
gin
glow
gabri
hal
hem
kangar
las
lud
prea
roc
rip
rib
roth
sort
tribe
tasty
wik
wies
##otic
##kan
##ucc
##har
##haus
##diction
##lan
##lims
##power
##gas
##fish
##mine
##jama
##ár
##melon
##tts
##open
##eem
##olia
##sta
##stop
hail
hash
haste
##aryk
orbit
##edy
plot
rehab
##essee
##essel
##aust
arrow
grasp
unin
unac
probe
1500
##aps
into
##ectious
##ectiveness
##umble
184
tennessee
200000
cob
##ampa
##sile
strain
homesick
attic
guill
phot
toast
underw
waterfall
watermelon
prevail
awesome
internaz
transmit
surfer
obsc
supplier
nov
thesis
muslims
annex
developer
follows
systems
solitary
provoke
##ovsky
peach
professionals
freely
trivial
##axy
billing
aviv
receiver
stations
##ughty
##borne
andrea
illusion
markku
infectious
ballot
balloon
accordingly
merkel
autód
tourism
secondary
hollywood
conditioner
perfection
sudan
fright
worthwhile
accounting
variable
novelist
doubtful
cauti
massach
saturn
judgement
queue
limitation
balcon
nonstop
saving
premium
donation
referendum
admission
korean
cheerlea
torment
ethylene
tendency
##ivalent
effectively
ruined
moody
sincere
exploitation
mtv
renounce
mandatory
explosive
venus
occasionally
nutri
prosecution
bugatti
masaryk
immigration
eternity
aggressive
galile
galaxy
kosovo
##yclist
mugello
contradiction
inquire
unbear
hedges
displaced
kennedy
victoria
##write
deployment
partially
enlargement
disarmament
dialect
purification
vladimir
uneasy
georgia
landlord
peninsula
jurisdiction
inciner
hypothesis
kooyong
stink
elaborate
judgment
melanie
cucumber
rehabil
autódromo
cheerleader
times
300000
60000
aig
aeg
bou
bold
cair
dwell
fier
fetch
fisc
gi
gend
junk
ka
lens
lith
mock
már
neat
sap
ufo
vog
##oan
##oard
##uman
##aft
##how
##tude
##net
##fire
##mill
##mel
##tition
##east
spray
##enberg
##ures
##usk
##esar
##ices
##othe
stan
stern
style
prol
##dehy
##oding
chuck
tre
tresp
##unction
daylight
gren
gross
manche
cling
unav
##apo
inten
brad
newport
anne
ances
parcel
disgr
martial
blank
expire
helper
##agic
repatri
saar
##ighted
token
allied
beam
earliest
asset
assass
transaction
regul
regiment
##arine
confine
confession
##usetts
productivity
sunlight
skull
console
immen
sooner
##inawa
caps
fireman
annually
sentiment
effectiveness
systematic
protestant
steep
##ovia
british
summ
modify
metre
##iban
operator
drama
successor
emulsion
supporter
competence
superb
craft
okinawa
anyway
missile
1963
shareholder
cement
sandy
cellar
jacks
warming
separation
identical
certif
criticise
automation
consistent
socialists
sexy
##donald
psychologist
immort
broadc
1939
donington
multip
rumour
taliban
toronto
##step
ferr
hanover
hamburger
exploit
accompanying
croquet
renov
conservation
mechanical
inspire
behind
emphasis
motionless
epid
fasten
pedestrian
hostility
uncertain
nepal
nominate
tribal
catalan
advertis
##wait
##eteria
thermometer
cycling
everest
jewelry
contradict
axe
hubble
utmost
biker
walter
inheritance
sophisticated
laguna
swiftly
severely
bmw
casualty
kuwait
accommodate
valencia
cafeteria
constituent
discrimination
presidency
lobby
ozone
##rodt
orleans
evacuate
rexrodt
velocity
aristocr
einstein
gymnas
björ
eagle
meteor
pistol
parallel
queensland
klingon
florence
daimler
dolphin
dortmund
kangaroo
massachusetts
balcony
cairo
fiscal
márquez
##dehyde
ancestor
immense
advertising
anth
4000
74
83
ale
bounce
baker
dwar
gon
gum
ja
jos
lille
ni
oscar
pec
render
stem
sato
tnt
tube
vod
##oa
##oin
##otive
##oft
##kk
##uj
##uction
##do
##din
##life
##bish
##brow
##fle
##moon
##enter
##eath
spit
##orous
##usc
##using
##isse
##olite
##elson
liby
##asian
chang
chron
##iguous
plus
plato
plague
##nitude
armen
shooting
unlock
carve
comedy
##uster
alt
aloud
intol
##thm
acr
ana
anim
##ipedia
adam
189
interim
contam
pavil
leis
reproach
belarus
outline
aboard
crane
##ighting
minim
moz
flake
eleg
underground
slope
beast
awaken
assault
##vernment
obstin
197X
subj
ages
eyebrow
settler
basin
protester
monument
medication
dramatic
##government
este
illum
amusing
convent
cleaning
trustworthy
owl
kindly
supervision
stephen
viewer
shirtless
performer
loos
1949
decay
colored
vacant
daniel
magnitude
embank
copa
stiff
1954
1951
1953
lendl
applicant
disappointing
feud
nervously
harmony
philosophical
insurgent
basically
attraction
edison
jacob
tux
bundesbank
counterp
ethi
prediction
widow
ferry
athletic
fortunate
fashionable
##rawl
printer
timid
poisonous
tanker
inspiration
suez
scenario
vulkan
eyesight
##irin
honeymoon
mcdonald
ahoy
inquiry
cockroach
respectively
congratulation
zeit
reverse
valentino
bikini
linguistic
segment
thoroughly
perpetrator
obsess
pyra
incline
flavor
irritate
farewell
serbia
irrespon
quarterfinalist
unanimously
bakery
suzuki
revolt
guinea
##rinkle
continuously
fernand
monopoly
gratitude
disguise
structural
rhineland
trampoline
incorporate
censor
yamada
expedition
accumulate
wikipedia
epidemic
79
bub
bac
bond
cit
dat
dash
dpa
ecl
fisher
fbi
gust
gugg
hess
hook
hond
irish
jury
kon
mes
nelson
pit
pir
pulp
ry
reas
rim
rag
ripe
stimul
sara
toll
wo
wer
wade
yarn
##sory
##hill
##ttemberg
##iance
##nis
##cul
##cake
##rö
##ren
##rogen
##pack
##bar
##bra
##zh
##erb
##ties
##entially
##teop
##arping
##ttal
##occup
##uros
##oro
##orable
##orosis
##omous
##antes
##oleum
evolve
##izzy
##andum
organizational
111
115
tragic
##rug
##ruhe
##unya
##icist
exert
condom
convey
neu
frost
frau
##quisite
##ighter
##reg
lab
##thy
newly
maast
##ipse
##rait
sober
183
roast
marco
contag
impolite
pajama
##ages
drill
drift
repay
reprodu
scharping
stroll
indians
guer
grandparent
accession
namely
##rob
##roid
wax
idol
column
chen
earring
champagne
prey
##acht
deserted
startle
##neider
syria
##ashk
corrupt
rainbow
telegram
windy
hopeless
cann
auster
revise
brig
metrop
australasian
knight
indoors
##iversity
emirate
infant
flyer
neighbo
baghd
madness
fries
erase
misl
misery
magician
robe
harp
attendance
equivalent
conversion
portrait
expertise
1958
195X
1955
fleet
flesh
##eship
weaken
financing
baltic
##iliary
integral
grim
welt
##lender
osteop
patron
laborer
jointly
fingerprint
riddle
essence
editor
demonstrator
pharmacy
historian
categorize
cheerfully
acquisition
boundary
aspirin
tenis
spectre
##richt
spinach
pillar
reactionary
atlanta
municipality
hopeful
nomination
butcher
fucking
catalunya
blessing
##aids
75000
auditorium
migration
hirvon
disgus
hazardous
klaus
joseph
##driver
politely
sachsen
verdict
jakob
veto
carnival
recreation
barrack
volcano
umag
composer
spectacular
catastrophe
adequate
seldom
vacuum
##baden
cyanide
karlsruhe
wiesbaden
guillermo
rehabilitation
dwarf
vodka
embankment
ethiopia
pyramid
eclipse
guggenheim
maastricht
contagious
emirates
neighboring
osteoporosis
hirvonen
anton
6000
aa
aux
benefici
bap
bass
dock
diverse
dtd
ero
fo
gir
gut
mü
ming
mous
pf
pledge
pkk
sas
tide
ucl
vessel
zh
zar
##kes
##kins
##ksw
##ui
##dler
##ni
##raction
##liness
##pd
##ged
##gam
##ívar
##mester
##ono
##onic
##eapple
##rigue
##arag
##ttage
##orandum
##alan
##ined
##esch
##uli
##ulpt
##celer
##tinctive
##oli
though
##andy
##gance
chir
##getic
##rup
##structive
except
sha
shor
groc
150000
freak
lam
lama
acceler
compati
anonym
##ackle
mafia
buchar
##ectory
interc
intergovernment
blink
explicit
contrib
encode
cottage
appla
##abase
levy
##shire
server
schmid
schneider
sculpt
##icker
indig
indign
indication
guild
upside
upcoming
199X
longing
seca
flatter
hardwork
refresh
cola
slo
wars
##risy
backpack
internaci
waitress
walker
geomet
funding
##iana
memorandum
subset
traitor
semester
contractor
percentage
delighted
##liance
stein
steve
legally
##oval
medi
trifle
extract
shorts
weiss
windows
teammate
penet
publication
among
petr
borg
hospitality
simpl
allowance
auto
autob
volksw
temp
##ika
holstein
conditioning
shipyard
midst
1947
practically
injection
battal
decad
scrap
burma
radioactive
smoker
quebec
bloody
bolívar
investigator
automatic
diab
tarrag
narrate
narrative
speeding
humour
franz
referee
relaxation
##zzle
pineapple
extended
mandarin
tailor
italiy
tsar
qualification
detergent
virtually
rubbish
columbia
cubic
ruler
emigrant
overseas
arbitration
sovereign
seguros
robinson
collaboration
microscope
microsoft
nikol
reluctant
reluctantly
nevsky
devastate
nitrogen
peacekeeping
addicted
hypocrisy
dresden
albania
compulsory
cyprus
atheist
firefighter
nigeria
ludwig
unaccept
unbearable
manchester
superbrawl
certificate
pavilion
elegant
database
austerity
baghdad
beneficial
bucharest
intergovernmental
applaud
sculpture
internacional
volkswagen
battalion
tarragona
78
76
ay
cim
dal
density
eu
fuss
gdf
jup
jeff
kat
lumber
mit
nash
nich
noun
nasty
oet
pel
peep
ranger
ranch
soda
tric
vague
##ader
##scent
##tail
##drop
##iated
##car
##rage
##riter
##lus
##lah
##bru
##gular
##ju
##än
##meyer
##tied
##tism
##aro
##oper
##esc
##star
stere
##lyn
thres
thuring
prod
##ilt
##cturing
lik
lid
chart
chim
ard
##herent
##htub
shaken
##adle
unicycle
unrel
asb
##vert
ali
acute
brace
##osevel
countless
roosevel
bloc
blade
scoot
whit
handic
abier
abrupt
creek
cathe
moist
motto
accused
wach
flirt
boyco
undert
##lication
slim
prede
glitter
governess
config
finished
insure
aged
canal
promising
mediation
##minent
snowman
knot
affected
continued
purely
android
divine
##brush
poster
##iterate
merc
typew
twist
loaf
oklah
risky
colorado
globe
machines
1964
196X
1965
copper
damages
violently
drunken
caesar
heir
satisfy
feedback
##xxxaids
liberia
integrity
citizenship
focal
frankly
instal
confirmation
edit
milestone
literary
unsucc
##schaft
embargo
##bonne
stomachache
##ipping
propertied
samsa
gaul
ordin
michigan
##ophone
domain
indiana
disturbing
muiri
reelect
venice
grammatic
1912
deterior
diplomacy
undress
interface
academic
bathtub
nicolas
##warz
##rocess
magnet
taleban
coordin
cyclist
##enhof
ariz
ariake
emigration
irregular
adjustment
screwdriver
loren
collaborate
persecute
northwestern
bilateral
sarc
astonishment
ogier
cassini
vinyl
endeavour
gravel
phosphorus
puddle
perspective
hivxxxaids
restructuring
rhythm
adolescent
catalyst
greedy
württemberg
inconvenience
gabriel
broadcasting
leisure
feudal
irresponsible
fernando
mislead
auxiliary
uclaf
accelerate
weissenhof
petroleum
jupiter
threshold
roosevelt
abierto
boycott
typewriter
oklahoma
unsuccess
muiriel
grammatical
700
84
81
91
az
ald
caus
dice
diversity
fart
fusion
gm
gua
gel
gsta
humb
hinder
jon
lan
lisa
nad
nourish
ont
oath
pint
rin
saus
sized
tiss
vl
ward
walt
zero
##kh
##kus
##iat
##pherd
##ves
##vag
##jong
##ín
##imer
##rior
##rial
##ttan
##alo
beware
##icator
##otype
##tina
##atable
##stream
has
hack
prud
##cht
##child
##irchen
orth
orche
##nite
110
doom
inade
##ultural
rebell
rewrite
##essie
arson
arro
137
##hthal
shuffle
shipping
conce
grown
manha
cla
unmar
unreal
aside
brook
compass
##iago
##ram
parsed
serial
sermon
handy
abbre
cradle
grandpa
warrior
designer
gloom
transparent
endure
endless
endorse
frenchman
geography
passing
insuff
agit
discourage
27000
centime
annum
restric
sele
seventh
itch
swimsuit
rafa
rauch
remedy
stew
revive
modification
billie
snowboard
aven
##iotic
salzburg
calam
travels
banking
developmental
grassy
programmer
gardener
merit
merrily
shepherd
pasta
elf
twil
hitler
judicial
sniff
vers
1961
churchill
caution
stich
civic
garcia
porter
thoughtful
finances
bonus
harmless
automotive
integrated
drain
grip
grief
guards
savage
fluid
defendant
logistics
bandage
malaria
hamlet
firmly
rhino
substitute
keiko
kebab
naples
pronunciation
polluted
fashioned
abandoned
mandela
optimist
qualify
1917
pursuit
blend
lyric
brutal
skateboard
orientation
oriental
dyn
sued
oliver
luxury
illustration
enlighten
precision
contempt
emigrate
electronics
motivated
quake
cultivate
cuise
utterly
exclusively
ipad
protocol
endeavor
autonomy
##burgh
shuttle
johannes
santiago
anderson
kanther
vending
lodger
prospect
separately
strangely
americas
##court
geographical
fierce
lithuan
björn
peculi
libya
across
obstinate
esteem
counterpart
guerrilla
lamotte
schmidt
unacceptable
scooter
cathex
arizona
lorenzo
gstaad
sausage
tissue
manhattan
antib
aer
bie
bead
bacter
dod
dizzy
ej
falk
foss
gull
hog
ivo
jum
jenn
ketch
khan
kurt
mace
mead
mourn
pine
roy
rena
sg
sü
sig
tub
wic
when
where
wemble
##oir
##uya
##att
##hof
##tan
##dale
##cou
##lain
##master
##vas
##hey
##hening
perch
##ithe
##lem
##ringe
##tener
##armed
sprint
sporting
##cile
##inar
##oso
##osexual
tommy
##oland
##athetic
ster
##chang
##champ
##irect
##eash
pluck
inmate
input
tram
122
##uther
##hter
shiver
shaped
conception
##iding
manip
manuel
claus
##endo
unde
unint
assert
##repr
laura
comply
##tified
forge
##illing
##ogue
disable
offence
##agong
needle
schwarz
abhor
upward
##ressed
##ifier
hardest
##licate
poacher
transpar
turnover
entrepr
sunrise
skating
thee
##ionali
##viate
carelessly
canad
firework
retreat
defect
addict
raft
brink
triangle
##sterdam
landing
ape
apoll
emil
amsterdam
convene
economically
carpenter
gardening
##plant
earnest
hers
laden
holland
holmes
conditional
perfume
vegas
madison
notation
notorious
centers
snail
sneeze
saddle
verge
vaccin
escal
##oidable
ceo
palais
carib
documentary
equation
normandy
safeguard
peer
unfold
physically
advancement
gries
consistently
ambiguous
nara
accessible
psychic
bulk
francor
multil
mathemati
widen
width
davis
gathering
rhode
strengthening
duke
frankfurter
territorial
henri
pregnancy
seminar
reconsider
behring
epic
pedal
atlant
tightly
muster
##cedented
ricardo
richter
eyel
coordinate
aggression
idleness
barbara
sommer
sympathy
icelandic
oversleep
huber
hirosh
mahjong
smuggle
dynamite
confrontation
sophie
solely
amusement
recruitment
literal
squad
enforcement
imprisonment
ratify
rudolf
formedness
ernst
abstract
abundant
fiddle
testify
deutschlandfunk
extradite
supervisory
racist
paralympics
antagonism
ruehe
staircase
unprecedented
internazionali
unavoidable
repatriation
gonz
lillebonne
armenia
barracks
grocery
contributor
penetrate
amongst
diabolo
oetv
thuringia
orchestra
rafael
calamity
twilight
peculiar
fossil
ketchup
wembley
transparency
entreprene
francorchamp
86
SO
aviation
bh
brew
creator
erupt
hart
hier
icy
jari
jiro
kle
lank
lump
otto
pent
pes
pac
porn
recipient
reet
tashk
tackle
vent
vici
vamp
writing
xx
yacht
zip
##oqu
##kok
##uz
##upp
##utter
##sson
##sma
##hua
##iority
##night
##cock
##corn
##eh
##rest
##lu
##bird
##batch
##gle
##zan
##wife
##ís
##RCE
##ën
##URCE
##tize
##itud
##lez
##lence
##ries
##tes
##ocular
##orer
##usal
##cine
##opus
##inative
##inois
##incing
bew
##ultimate
##ostic
##atization
##otation
##otch
##atural
stool
stumble
hak
prank
103
limp
##gano
##ased
##ateur
choke
chave
ineff
tropic
worsen
130
coma
extor
##acent
congo
concede
groom
##ides
claw
##aphan
alert
intrigue
acre
broke
butt
##ectic
##rable
##udge
soak
quark
181
##amm
##integr
disob
disrupt
marsh
marburg
joan
blouse
bluff
2019
eater
smash
serena
reporting
diameter
belly
whip
longitud
##roën
waterway
##ierre
poz
transc
25000
surcharge
##itty
questionable
entail
weary
lieuten
insof
overwork
overview
cane
restless
restrain
retro
ito
directive
controll
cutting
economist
snowboarder
popul
popcorn
##going
traveller
penultimate
andreas
heap
illinois
ammun
amateur
players
taxation
enjoyable
merr
sometime
somehow
technological
supersti
mario
marilyn
pastor
elbow
silently
vegan
chairperson
masterbatch
erad
batter
vaccine
heavyweight
escaped
burnt
energetic
collide
approxim
hein
applicable
sepang
bolt
bobingen
heater
drought
throne
##ipei
patch
pathetic
softly
communications
humiliate
punishable
franco
palestinians
donor
brightly
surfboard
ruhr
wrestler
beneath
courageous
wildlife
archae
torch
kara
peasants
specifically
stuffed
taipei
davy
licence
striped
hanako
linux
adjacent
influential
casino
timor
procedural
flooding
ult
dissatisf
coastal
exceptional
correspondent
unpop
reelection
pursu
cruelty
##ogenic
pedro
uncertainty
residential
pepsi
mustard
passionately
allergy
controversy
maiden
convenience
bangkok
disagreement
efficiently
commem
semifinal
cosmetic
smuggling
fascinating
cartoon
consolidate
homosexual
deliberately
kazakh
accommodation
rusty
austin
skep
autonomous
darwin
veteran
bureauc
disperse
marvelous
stoiber
interrogate
prescription
fragment
cambod
excellence
dishonest
kentucky
calculator
carpathians
czechoslovakia
ostrich
reunification
apprentice
extremist
bunny
mongolia
pilgrimage
gendorf
disgrace
regulatory
immortal
conventional
tuxedo
bubble
citroën
slogan
wachovia
deteriorate
coordinator
ontario
rinse
arrogance
unmarried
dynasty
macedon
meadow
sgml
wicked
griesheim
SOURCE
reetsma
tashkent
chavez
lieutenant
insofar
ammunition
bom
bast
bye
bib
biling
cod
damp
dna
ditch
eg
gown
hiss
hood
hare
hover
hij
ia
kale
kun
kum
kabul
lac
liver
mp
nam
nint
nsw
ott
oed
ple
pee
pean
qur
rack
sic
sod
uy
vow
vil
vatic
vib
wher
wider
wald
yuan
zuri
##ysi
##aç
##té
##ih
##iol
##nical
##can
##eb
##ett
##rary
##reet
##bean
##bye
##bler
##bishop
##girl
##front
##more
##rium
##ocide
##orph
##cio
##cially
##cism
hearted
##ali
##inas
##osure
##uben
##gro
##olagong
##atories
hass
goolagong
##izing
org
ligh
libid
liking
chil
chore
organism
114
ine
insert
inexp
reaff
reorgan
##ooded
##aded
seeker
exter
##section
##sewhere
clo
unchang
sayib
dew
degen
carrier
comet
alum
alright
goodbye
another
##beria
##ipus
disruption
enclose
courte
impunity
germanic
##agu
##agg
resent
reside
swab
scout
script
scorp
talkative
outfit
crouch
sapp
upro
physi
minimal
secre
formulation
##rings
flourish
##tenberg
relia
sitting
undermine
fatherland
refusal
standing
poke
inviol
2500
##arize
governance
learner
removal
##ussion
consp
motocr
internationalist
##ouncer
subm
trader
windmill
forgetful
seles
fireplace
protein
matti
directory
racial
employe
summon
metro
circuito
salty
ministerial
haird
dramatically
kneel
surpass
pengu
andr
siberia
banker
remains
stride
wester
convincing
##ways
curve
curaç
##apped
##appropriate
merci
touched
##baum
herd
elsewhere
radiation
downs
hollow
camping
##boat
##redict
sadly
verse
squeeze
magne
additionally
harass
toothp
toothache
availability
luc
1957
audio
occurrence
##vala
senator
christians
olymp
##berto
thrust
encoding
essentially
angola
immoral
fitting
##chenko
donkey
cristi
bavarian
naughty
antique
wither
pilaf
hyster
anxiously
biote
ethical
skinny
jerk
ownership
pronoun
tenant
fanatic
ecological
semi
unpar
unpredict
wiser
1925
reconcile
thirty
pleasantly
balanced
##rosa
ivory
alternate
withdrawal
iranian
pedrosa
hostel
flexibility
muddy
renewed
corpus
substantially
astronomy
eighth
accompl
stabilize
arbitrary
puzzled
persecution
clinical
advisory
guidance
amendment
incompetent
solemn
reckon
latvala
utilize
porch
chaos
mighty
valencian
constituency
genetic
warranty
##flower
speculation
insecure
abundance
loyalty
bureau
wagner
greeks
allege
frustrated
pessimistic
jeopard
overwhelming
fischer
measuring
tango
##slide
octopus
pipeline
invalid
##hausen
tremend
renovate
bacon
anonymous
geometry
chimney
mercury
unsuccessful
inadequate
abbreviation
lithuania
antibiotic
##couver
apollo
mathematician
longitudinal
unpopular
bomber
bilingual
oedipus
peanut
vatican
zurich
reaffirm
motocross
penguin
curaçao
89
87
92
bod
balk
bash
bitch
dj
dur
duss
eeny
fc
fug
grea
gly
guben
jeep
jessie
kh
kev
kamen
luther
mey
miam
ngo
pm
piss
torn
uru
vest
yosh
zw
##kar
##uner
##sport
##hole
##hog
##hail
##hma
##iring
##nn
##nity
##ches
##rac
##ls
##lia
##bot
##bwerke
##fol
##fter
##ficial
##making
##vin
##zi
##meri
##onne
##hend
##heimer
##eau
##each
##itative
##lev
##leton
##rip
##riet
##aru
span
spart
##ochemical
##ocaust
##enzy
##anna
##ustice
##alance
##inburgh
##esel
begg
##omin
##ayama
##issible
tomb
##emberg
##olitan
##style
stall
hague
hamas
thier
pry
##chert
evonne
##ouri
##deut
##deten
##deburg
##izard
chalk
incent
inhib
inappropriate
tray
trot
tractor
reopen
##run
artic
extinct
shane
shatter
const
conduc
greeting
sudeten
clum
unst
unarmed
neo
playground
alan
allen
##oved
breeze
former
anch
##acker
##iller
buzz
##umably
quant
quotation
interling
interaction
distor
blair
coer
coke
hels
append
stateless
pagan
studio
schro
indicator
##issance
##issingen
howl
commod
handbag
presumably
phant
moham
grandchild
##ernity
##nings
sloven
##ordinate
beaver
earnings
descent
awfully
glory
regist
##arist
##arians
##netist
##0000000
understandable
confisc
genocide
termination
remuner
doct
farbwerke
them
overc
capit
austrian
##obil
faced
continually
monroe
humans
baref
##lihood
media
revision
brigh
raceway
greg
grete
hairstyle
setting
knaps
calf
affiliate
footstep
mountains
keyword
infect
##denko
##linary
shopkeeper
safer
creativity
hospitalize
northeast
picky
poorest
attacker
superficial
millie
tempor
elite
eligible
twig
holder
holocaust
capitalism
toddler
iceberg
denounce
injustice
fearful
surprisingly
preferred
vertical
validate
berliner
magdeburg
turb
modernization
imaginary
collision
smear
melon
petition
unfashion
justin
statu
mayer
stormy
quito
guardian
dispatch
billionaire
laboratories
insurer
persia
edinburgh
legislature
psychiat
humble
tuition
##chez
franç
budgetary
1930
asthma
celebrity
hyper
sharply
archbishop
pharmaceuticals
##lamation
coincide
disappearance
tyrant
nuremberg
surroundings
##glades
##guay
diminish
publishing
hobart
rename
ultimate
dissolution
flagship
1922
inspect
maxim
narrowly
entrust
treas
bayern
romance
bruise
##parable
bitterly
scholarship
##archist
rationality
everglades
contempl
tibetan
migrate
cosm
thunderstorm
granule
linguist
alleged
stingy
seduce
consolidation
victorious
latvia
ledge
mikhail
siport
tumble
wwf
graph
##sdorf
abstain
molec
pavement
mexicano
diagnostic
services
propaganda
frustrating
lunar
##ková
beverage
subscribe
tactic
laziness
attentively
buffalo
unbelievable
preach
aegon
prolong
grenade
intoler
subjective
stimulate
##zhou
brigade
antonio
chirac
sharing
nikolay
ordinance
aldi
vlissingen
rebellion
insufficient
enlightenment
falkland
entrepreneur
francorchamps
davydenko
kazakhstan
libido
cloak
alumin
scorpion
sapporo
employees
dusseldorf
greasy
kameniev
miami
uruguay
incentive
formerly
schroeder
remuneration
knapsack
unfashionable
aur
aberto
cia
dak
eric
fati
gand
gif
hm
htt
hex
hud
hert
ich
jill
kay
lite
lope
lloy
nord
nearer
noth
numb
ot
ome
pd
pv
ping
pong
paste
ponder
pampa
rt
rico
sri
samp
surn
sord
tet
tian
tread
tighten
vu
vas
w3
wrist
wien
za
##uki
##aper
##sitter
##hist
##die
##nate
##ez
##eus
##roll
##lang
##pocket
##bian
##gal
##gone
##fill
##fied
##mo
##made
##malen
##value
##jevo
##worm
##with
##ález
##20
##ím
##onna
##heit
perse
##itage
##tet
##tee
sprinkle
##anny
##ophren
##escent
##ences
##uling
##ulum
##omi
##ayer
##otá
##otron
##emaker
##atz
##sty
##str
stack
stump
stagger
##elt
##elin
precip
prere
##dez
##izophren
liability
chili
chatter
chorus
plas
##effer
inac
inex
instruct
trample
tromb
reb
##utable
1900
arc
arce
shi
shud
shred
shield
manusc
clea
clam
clasp
unimp
##estchenko
deck
fract
frenzy
alam
alask
goodness
laur
intox
##odule
##immel
160
16000
##acetal
mason
##ogy
adhes
intersection
param
disk
ency
helpless
smack
lett
offense
##shut
##shalle
openly
schl
schrö
schizophren
swan
reading
scent
indirect
outsk
outrage
abide
runoff
schooling
miner
##erness
recess
flab
##llation
tech
teens
##clop
refrain
22xxx00
##licity
slav
euroc
chechn
cheaper
potter
preval
precede
preoccup
desirable
##ghur
transylvan
##arious
syll
24000
##erto
morgan
terminate
terestchenko
insen
depict
##ullah
subordinate
disco
discre
##screen
incap
proclaim
follower
systematically
##obic
##obia
explorer
promul
johnny
forehand
##ities
delim
##resser
hortic
australian
detention
##haeus
mountaineer
authoriz
headed
politically
##irts
cardboard
roadside
borchert
postage
irrit
factual
eastbourne
flying
autograph
autotron
suspension
suspected
35000
##hydri
heritage
starting
starvation
##lingual
victor
loaded
lowest
##gers
judith
decency
##redit
villa
##nai
variation
turk
dependable
castor
stip
patiently
periodic
banque
pete
portfol
bridgewater
1959
forestry
polyacetal
owned
diabe
complexity
edberg
gentlemen
angela
observ
##affe
franc
palestinia
rumble
resistant
hyd
calmly
archive
consequently
##liga
tyre
##selves
napkin
linen
adjourn
casting
timing
detest
vancouver
1920
optimize
floriade
rosmalen
dismay
whiskey
lipstick
bayer
brut
brun
hesitation
bathe
unconstitution
galler
gallon
streamline
prostitute
1906
1905
agre
dublin
mustache
##bacher
##skaya
##limat
banglad
30000000
##acio
substantive
odds
julia
irrelevant
furiously
mortar
colonel
kimono
utf
allegedly
goran
smuggler
dynamic
matthaeus
sensation
reckless
kazan
ebola
sulfur
browser
ronald
skeleton
quarterfinal
disneyland
hermannstadt
seaside
friedrich
kelly
dispersion
interrogation
dominant
yoga
yogurt
ascend
overwhelm
ideological
beverly
unwilling
conjunction
intimidate
legitimate
shrub
bnp
biography
loving
hedgehog
bogotá
underwear
obscure
cautiously
galilei
intensify
assassinate
capsule
aristocracy
gymnasium
minimize
mozart
zeitung
reproduce
chennai
jakobshalle
moust
hardworking
handicapped
gaulle
guatem
humbold
nadal
hasten
centimeter
renaissance
caribbean
multilateral
hiroshima
gonzález
vampire
tropical
karaoke
skeptical
kaledin
siclimat
uyghur
unchanged
hairdresser
beggar
phantom
confiscate
doctrine
themselves
barefoot
statutory
fatigue
http
lloyd
sampras
surname
prerequisite
trombone
shudder
manuscript
alaska
adhesive
encyclop
schröder
outskirts
chechnya
portfolio
bangladesh
anthem
600000
bent
banner
bean
bache
bisc
ci
certainty
dou
dair
frisb
got
gem
gast
goth
grum
hect
hipp
icc
jel
jeffer
kaw
kaf
koko
keeper
kais
lem
lust
leash
nin
noo
nun
nak
pact
pesti
qip
ration
rash
ross
roland
sally
sash
slender
tul
testing
turi
uri
urine
vw
viv
vag
xin
zla
##oen
##oris
##kn
##yson
##ahn
##sin
##halle
##human
##tch
##iš
##national
##cate
##chem
##range
##lag
##pea
##post
##pox
##bn
##bin
##burn
##gs
##gation
##food
##ms
##muth
##ön
##vian
##xic
##jo
##just
##är
##tiest
##tium
##tilla
##heart
##rio
##tess
##tegi
spo
spont
spie
spouse
##enous
##ursion
##ortium
##esa
##icacy
##veill
##ceding
##timony
##atile
sta
stol
stoat
haven
thane
thorn
##ilise
ore
orch
##edience
##andra
##andina
##asional
organiser
pla
plug
plump
inland
trem
trench
troll
reap
reuter
##unov
##ppi
##elling
arctic
##structor
extinguish
extinction
shib
shah
gros
graze
##oustic
140
unim
unfriend
ashe
##esthetic
##inki
##inkle
fraction
##ques
##rez
laver
launder
##throw
acoustic
compact
anat
anhydri
prick
adorable
countess
countries
##feit
paran
tennyson
marquez
polar
enrich
20000000
yearly
appropri
impl
paolo
rese
##shit
drip
repeti
sway
swamp
diesel
scru
winston
##ephthal
courtyard
housewife
outl
outward
handstand
handling
abu
abduct
crus
motegi
accrue
recite
##iful
boul
slopp
bearing
gleam
endow
endurance
surveill
##ashi
confed
trainer
correl
morris
teresa
terephthal
demierre
consulate
consortium
imf
imminent
moto
farben
seafood
overd
telegraph
televise
##ichi
milton
answering
##arkand
##ounge
subtit
subtle
agitate
proclamation
bedtime
importantly
basf
retrie
##oku
maternity
monk
delhi
revolve
economical
sumo
signify
coffin
metap
truthful
landfill
landshut
salmon
caltan
favorable
apost
seller
##bron
emi
##cessor
occasional
collector
curl
programming
##chnology
pickpocket
kindle
excursion
supervise
greenland
revolutionist
topless
topple
##ylon
climber
vein
coverage
capitalist
boxing
32nd
##bott
cramp
##ieth
decor
worthless
magdale
privy
cebit
##holic
##ompass
bursw
dependency
millions
heid
filling
physicist
fatality
certify
weakest
financially
bombay
breach
halfway
automated
romeo
graduation
oskar
scheduling
##ween
franklin
42nd
lesbian
encompass
edmont
legislate
methane
bulb
frances
palestinian
1937
admiration
credibility
naoko
bidder
digit
comfortably
michel
avert
primitive
tyran
jealousy
fertile
mobilize
sami
samarkand
curiously
ecst
ordinate
renown
neglig
disturbance
persuasive
encouragement
reef
##helm
oxford
oxidation
1918
dismant
racer
whisky
treason
intentionally
tipt
interference
hostess
shrimp
enhancement
agrarian
agrochemical
comprehension
older
flashlight
typhus
fragr
synthesis
pearson
symph
sympath
sympathetic
horizont
axis
linguistics
allegation
##greb
culminate
sabot
deliberate
skillet
cassella
mikko
rejoice
neuron
www
vigorous
graphic
persistent
irresis
nevada
besides
recycled
marginal
testimony
prescribe
dreadful
extradition
supervisor
probability
legitim
hiking
sherlock
sparrow
shoemaker
acrylic
discontin
duplicate
ginny
ribbon
josé
##issetta
contamination
loosen
reassure
sarajevo
cannon
erotic
foam
shorten
unreliable
predecessor
configuration
avenue
dodge
vaccination
atlantis
merrell
ultra
pursuant
cambodia
bastard
quran
vilas
cristiani
unpredictable
accomplice
kevin
meyer
conductor
helsinki
commodity
registration
temporarily
lopez
nothing
zagreb
##strong
arcega
cleaner
fracture
lettuce
authorization
galleries
agreeable
moustache
humboldt
bachelor
dairy
frisbee
grumble
jefferson
pesticide
qipao
turin
##peace
spontane
shibuya
unimag
unfriendly
anhydride
surveillance
subtitle
caltanissetta
magdalena
burswood
edmonton
antid
8000
9000
aj
aless
auti
bale
bic
bot
bount
bach
ceas
cogn
cube
dl
dot
dose
dense
deeper
ell
ester
eco
emet
fion
flock
fitz
feast
g7
ginger
gamb
guad
hing
halle
here
hana
icon
jy
jaw
jama
kur
koal
kash
katri
ll
lj
loth
län
lounge
mule
module
nigh
nylon
ou
ov
omit
peek
rw
ré
sici
sect
sisco
vicious
wup
wagon
zomb
##oise
##aholic
##sing
##hans
##di
##dian
##iom
##irical
##ns
##cur
##ević
##rh
##ps
##bus
##bir
##beck
##gon
##giving
##fr
##mt
##minton
##missible
##viz
##zt
##zheimer
##will
##witz
##46
##íková
##ña
##entiev
perple
##lenko
##arr
spr
spac
spani
##anic
##anium
##ortedly
##ciss
##inqu
##inable
##esee
bec
beet
better
##ulu
##omit
##pertal
##osy
##vet
##ubl
##isal
##isance
##isine
##ouraging
##group
going
##ilation
##illes
105
##izz
##andria
##ige
plum
##efire
doha
tran
trang
1200000
reu
revel
##iciency
##ppet
##elli
arn
aragon
##herence
exagg
maryland
shovel
cong
conceive
groan
##ida
manu
clause
clarity
cluster
unh
unhe
unident
neunk
asser
##ieu
##ndorf
cargo
frown
fauce
comedian
thinker
alzheimer
goodwill
reasoning
##actant
workforce
workaholic
##mania
compile
newcome
foresee
analog
anarchist
pricing
buchan
##ogene
##uda
##udad
soothe
18000
##amiliar
interruption
optical
roam
roque
disast
disresp
marat
marble
##sians
##abad
lev
lever
##shore
children
opener
reprocess
schum
schering
scram
scandina
indul
indisc
whirl
wholly
crap
sau
preservation
presupp
buyer
phar
schools
moe
realization
wellness
waiting
fla
relent
teut
refund
slob
slump
standpoint
earl
pohl
preceding
invoice
glue
glorious
syrian
obstruct
badminton
30th
stopping
empirical
##yev
airborne
demol
doorway
constell
notic
noah
insan
insign
overcoat
overthrow
headphone
##coni
missouri
##scence
brothers
canoe
cannes
seoul
contingent
defy
lightly
monst
addiction
barack
filthy
growl
rav
deliri
29th
concur
armour
modesty
##orie
avks
avalan
##ushu
procession
advent
nationalism
setback
drach
succession
dressing
heated
amro
charlie
petrol
postman
curb
curric
susie
babysitter
safin
simpler
hatch
sheer
greenpeace
35th
33rd
typically
senseless
momentum
downward
twinkle
crossing
boxer
suffice
checkpoint
madam
guitarist
barings
fuch
deceased
crowbar
associated
messenger
privately
deepen
globalisation
meow
turks
involvement
modernize
commissioning
spacecraft
attendant
sandra
cauc
garment
emerson
cellular
civilisation
simplest
unfamiliar
warmth
url
bathing
identifier
certification
crutch
between
gradual
patrick
broom
panama
fluor
withstand
forgiveness
complexion
monter
montreal
narita
narciss
paula
angrily
humility
roller
##lette
straightfor
1933
brighter
surfactant
puerto
credible
petroqu
adoption
digest
mosque
cabbage
karbacher
brandy
##utta
##zzi
guaruj
exporter
extravag
tavern
aspiration
pinch
cynical
10000000
jerry
sincer
kettle
pollute
adjective
dieter
chopin
premiere
forty
##holding
detector
wheelie
wilder
wilhelm
positively
1927
entirety
deriv
ivy
undo
2000000000
romain
prohibition
adaptation
nicol
nicarag
accomplishment
imperative
olive
vulgar
feeble
eyed
##ographic
mummy
hohen
dictate
julius
megawa
statistical
bullshit
dumpling
disciple
alphabe
comparative
residual
verbal
fabulous
amph
rxxx2
cuisine
smoothly
uncommon
terrific
telcel
lafca
utilization
evidently
##hofer
flavour
patriot
rejection
harshly
tolerant
southeastern
furnace
kurdish
listener
bernhard
oakland
indifference
legendary
presidium
devastating
clarify
fragile
propagation
errand
ideology
internationally
synonym
hiker
chlorine
rothmund
multiply
chronic
fisherman
werndorf
compatible
indigenous
decadence
##juku
bracelet
bieber
canadians
behringwerke
eyelid
lanka
##integration
retroactive
superstition
eradicate
bureaucr
lighting
chilly
uproar
internationalists
toothpaste
unparsed
tremendous
anchor
slovenia
treasury
pvc
##ímica
transylvanian
insensitive
stipulate
ciudad
hectare
jelly
tiptoe
sabotage
ceasefire
fiona
koala
katrina
lothar
länder
wuppertal
zombie
perplex
spaniard
exaggeration
unidentified
neunkirchen
faucet
buchanan
disastrous
disrespect
constellation
avksentiev
avalanche
straightforward
guarujá
megawatt
objec
3000000
7000
ais
aaron
bitt
cô
dw
dos
dart
dusk
ew
equa
fing
ges
gag
ht
hew
jen
jur
jag
kee
kir
kip
liv
lex
ltd
mé
mute
mop
mant
nan
nud
oec
oint
ps
qa
ri
rolf
rasp
rita
sz
sop
sag
ull
urin
vandal
vomit
wig
wick
wring
wane
wizard
yo
##yan
##hore
##hink
##dog
##dorf
##iè
##nie
##cat
##cest
##culation
##cussion
##eve
##rome
##rusion
##lä
##lava
##líková
##bone
##bout
##fb
##fold
##fare
##fabri
##zar
##zed
##zai
##jin
##wit
##wash
##wealth
##été
##10
##50
##šice
##onet
##onate
##onge
##hetto
##eabout
persians
##itus
##ril
##rify
##text
##arbon
spati
spike
sponge
##anol
##ops
##inen
##enchen
##ante
##osed
##vez
##cell
##isch
##issi
##isting
##ische
##reason
##atum
sty
stalk
had
haas
##eta
##etched
prost
108
101
102
##chand
##ingham
##depend
orantes
##easible
lily
liable
##asse
##asco
##aten
chub
chry
plaster
doze
ingen
121
12000
reper
##ooked
##iciently
arsen
seehofer
##acas
##acre
shiz
shove
sham
shamp
shrug
145
clutch
clarin
une
unsc
unsure
undp
unreason
progn
fahren
##api
##indle
##quila
alm
ally
alton
lace
lakes
intu
##thing
##mans
anh
anal
anke
anarchy
179
175
mast
bum
##ogo
##ogical
##raper
##raham
adolf
displ
##anga
marg
marcel
johans
blur
appra
germ
paw
smog
offsp
serge
schimmel
swee
dike
indict
busan
##issa
belgrade
beloved
outgoing
handc
abbas
savi
guzz
guido
miny
minus
mould
grandson
##ernail
##roon
##ifer
##tender
glare
##erald
youngster
redo
obedient
learnt
jobs
genoa
lawmaker
##ensburg
cornetist
##ollah
airways
sleeping
bigot
insc
instinctive
militi
mississi
##scraper
easiest
hurdle
procras
restroom
sentry
seiko
solitude
continuation
defender
lighter
circulation
##oker
monot
federalism
additive
bartender
##itis
raven
delta
meditation
brighten
armstrong
horrif
moderation
snowball
populate
costly
landslide
detach
wein
salinas
dangerously
viii
successive
calder
calorie
footprint
mountainous
lessen
cupboard
##ithm
charl
charwoman
infringe
forced
petal
##ocrite
postwar
##chnik
poorly
##umerable
##bao
##bai
leftover
volatile
eloqu
typo
mainland
##ylie
cameroon
prefecture
bau
riser
commonwealth
fuku
anymore
scrub
scrape
snatch
sadness
misano
verify
candid
meeny
belongings
skyscraper
imaginative
dependence
hangover
cafe
documentation
innumerable
toothbrush
melody
independently
beatles
##bergast
founding
kenji
luke
##awi
massacre
gasp
middlehand
uranium
justification
justified
industrialized
boarding
fezzi
polynes
grill
traditionally
sweetheart
patent
##wein
ambush
encouraging
appreciation
weave
jacques
sharon
immune
premature
multilingual
unsatisf
admir
willingly
mixer
devour
bodyguard
thanksgiving
košice
actors
favourable
fertil
menace
boredom
heroin
gaud
validating
##laughter
mandlíková
siege
1924
heavenly
mutter
muenchen
odier
navig
florid
1919
emphasise
whisk
##aux
carolyn
epis
untidy
hypocrite
mutually
uncover
fifa
acetone
shrink
dubious
urgently
stressful
infinit
burger
##space
relieved
akron
mumbai
gracefully
barbec
koschnik
cyclone
astronomer
mentally
accuracy
tenth
ivaniš
alpine
colonization
migrant
gangster
reverence
lorraine
buddha
persecuted
binocular
sleeper
manslaughter
pluto
incomplete
twentieth
ankara
recklessly
simultaneous
coca
café
felipe
lisbon
liszt
paradise
creepy
buddhist
tamper
ratification
veterinary
alfredo
politeness
bravery
ruthless
##proof
suzuka
commissars
deportation
vendor
restructure
cambridge
lunatic
ibm
société
abdullah
carpathian
herbicide
tickle
feminist
chloride
exempl
unbelievably
moldova
discontent
inferior
inferiority
incinerator
trespass
trespaphan
saarland
anthrop
illuminate
hesse
piracy
metropolitan
giraffe
explicitly
simplify
autobio
nashville
nicholas
##brune
gloomy
beads
gullible
ivoire
jumper
süd
hersfeld
bewilder
mp3
namib
inexpensive
physiological
secretive
inviolable
glycol
interlingua
contemplate
aluminum
hmr
huddle
sordo
flabbergast
preoccupy
syllable
unconstitutional
guatemala
encyclopedia
spoiled
laundering
resettle
terephthalate
tyranny
ecstasy
fragrance
irresistible
bicyclist
cognitive
jamaica
rwanda
reunite
roquebrune
schumacher
insignific
monterrey
extravagant
romainville
retroactively
bitterness
côte
fingernail
hewitt
ointment
##chandise
chrys
shampoo
fahrenheit
altona
johansson
mississippi
procrastin
horrified
fezziwig
ivanišević
binoculars
antar
antis
94
aac
aard
aster
bene
ballet
cre
dor
drea
duration
eck
eli
eiff
eruption
fad
fia
fuse
fume
ferm
für
heed
imb
jay
kr
kraft
kylie
lament
lease
luf
lley
lula
moo
mog
mep
manta
nă
oau
pont
pall
pse
rhe
rating
sid
sage
sean
sten
sán
tact
was
wto
yu
yama
yuk
zü
zim
##oating
##ographer
##yama
##uxt
##uoka
##aq
##aution
##away
##sb
##say
##sich
##sung
##sko
##top
##dor
##dain
##ioso
##nch
##nect
##nenberg
##care
##lore
##pot
##pool
##pro
##bü
##bling
##gun
##gence
##fc
##fin
##fty
##mati
##moud
##vark
##zes
##zics
##wall
##wah
##wski
##ás
##ía
##șov
##mez
##onshire
##heat
##hecy
##hement
##rivation
##teen
##arse
##ttgers
spice
##ocial
##ocarbon
##ribas
##eno
##ancing
##urk
maleeva
##cist
##opl
##oping
##opian
##algam
beeth
##ulsive
##oming
##omorph
##osch
##isk
##uated
##ourse
##olent
##atus
##atra
##stase
##elo
hauxt
goalk
thaw
thames
107
##chini
##deer
oral
##odox
##eda
##edict
##asus
##ashed
##geme
plow
##eft
##dern
doviz
instructive
trus
tracy
reh
##arta
##utern
araf
comrad
exult
##htray
##aceable
shab
constance
##ady
##ista
##idated
149
14000
manag
clip
clearer
unre
ashtray
likewise
##verse
alley
##reuth
##reich
lav
intensity
##thans
##thyl
acrob
bran
compliance
foref
##assi
adhere
quest
quench
##athlon
paras
disclose
blunt
blasp
contender
envi
enchant
cobo
##sibly
appliance
books
##abe
impar
impet
paribas
lively
lech
offshore
calls
caller
reportedly
scho
schre
schwer
swine
strangle
dilem
scan
scal
scorn
housework
dogs
abbot
abraham
creak
crank
guang
presti
phoen
minnes
moh
realm
tok
toxic
recol
recount
boost
floating
harden
hardcourt
##ller
##llery
teuf
##closure
reflex
problematic
waterborne
prehist
##rising
backing
glide
glimp
##zeit
transplant
regensburg
younger
##arina
sysko
redund
obes
highness
confer
languages
laws
##werk
doorbell
consul
notion
overt
overhear
headlight
deprivation
agassi
folly
folder
succumb
announcer
foods
motorway
seiz
fibre
respir
##obel
basque
dacia
retention
defuse
defensive
defective
pointless
matsu
humankind
barry
##ulence
##lied
##ovic
revoke
nationale
nationwide
peacock
brist
prophecy
trim
hors
critically
cripple
##titut
shortcut
detonate
penis
authoris
##aves
apel
amalgam
seatbel
##atero
inflict
cardi
cardiff
cardinal
electro
westside
envoy
merchandise
shear
somesu
350
pastime
pasture
ellen
##iki
mainz
silva
hither
closure
campfire
covering
sufficiently
340
34th
viewpoint
cram
counsel
disapprove
tatar
baff
futile
globally
dannenberg
squeak
shareholding
##burgring
cemet
speechless
harbour
spirits
damned
generator
straighten
castorf
equity
equil
hezb
cello
portland
gladly
locker
artillery
stocking
mulund
balancing
mailman
negotiator
nucor
grieve
osce
diagram
dispense
kyushu
montene
smartphone
sexually
aimlessly
honorable
anglo
bygone
logo
romano
frequency
donut
donald
meaningful
meaningless
similarity
surfing
puppet
astound
daddy
ilie
mommy
natta
digiti
benedict
moselle
profitable
copyright
hygi
hyogo
44th
##iffe
devonshire
xmlxxx
gateway
##geny
predic
optional
stripe
sinner
necktie
duel
dimin
tuna
spectacle
rabat
pensioner
larry
spinner
lonel
##lautern
emphatically
ulm
ulrich
chamdor
exceptionally
hugo
unpro
##erslautern
lindner
much
muzzle
##beit
skillful
uganda
inspector
bosom
depressing
##ofil
experimental
lionardo
registered
bayreuth
hawk
cracker
untrue
permanente
beckham
prohibit
flexibly
inseparable
postponement
dusty
delightful
infinity
beech
akira
inherent
graceful
ahmad
pierre
dismissal
destructive
ramat
unlocked
elimination
spacious
giants
conquest
disciplinary
sewage
mahmoud
mahwah
pitcher
grande
cantonal
lorry
poles
displacement
martha
mattress
adviser
advisor
perpetual
consolidated
hundreds
marcus
cocaine
ipod
porsche
litre
paradig
serbian
squat
retailer
rudeness
unanimous
manifesto
seashore
insecurity
brașov
cadets
johann
phosphate
pudding
diagnose
diligence
papal
yemen
precaution
adolescence
stunned
advertisement
##nikov
internationaux
feminine
hasharon
cautious
confinement
summarize
jason
changing
rimini
hopefully
disgusting
disgusted
sachsenring
pfir
indignant
warsaw
cimic
dalai
mits
stereotype
likeable
undertaking
irregularity
sarcastic
jonas
prudent
unrealistic
agitator
manipulate
packed
extortion
controlling
ruhrchem
macedonia
sodium
degeneration
swabian
reliability
conspir
submarine
biotechnology
balkan
##deutsche
psychiatrist
molecule
w3c
wienand
paramil
biscuit
kaiserslautern
lemur
noob
spiegel
paranoid
repetition
boulder
retrieve
symphony
sympathize
horizontal
spontaneous
spaceship
because
monstrous
curriculum
petroquímica
wilderness
amphithe
aisle
raspberry
ingenious
repercussion
shizuoka
unreasonable
anhalt
handcuff
militia
charlotte
floridsdorf
barbecue
insignificant
chrysler
aachen
aardvark
eiffel
lufthans
lleyton
năstase
sánchez
zürich
beethoven
hauxton
goalkeeper
dovizioso
arafat
dilemma
phoenix
minnesota
teufel
prehistoric
glimpse
seatbelt
cemetery
hezbollah
hygiene
ruhrchemie
lufthansa
timely
4000000
Tour
aoi
beak
bis
bart
dmit
eh
eel
ely
eug
emit
eating
ebel
fighting
frug
gur
gör
hr
hock
hush
hiber
iz
joc
jing
java
kra
kam
lue
lurk
mm
mime
mour
moy
mec
muss
muff
nude
nause
nighting
nmt
oy
oe
oas
omn
pé
rí
rit
renn
rick
rused
rica
ss
sgl
sulf
tch
tid
tally
tamb
tampa
tusk
uc
uss
vocation
vap
wand
xii
yas
yak
yev
yann
zdf
##otism
##kop
##kapi
##yo
##uting
##aj
##sal
##sake
##siveness
##hain
##hara
##tz
##dat
##dess
##dick
##dling
##n1
##nab
##note
##cu
##copic
##cern
##cze
##comb
##ede
##rg
##rose
##rough
##rgy
##lop
##liv
##ptic
##pipe
##bridge
##gary
##ging
##gull
##geant
##gerald
##voc
##vist
##zstan
##wor
##wley
##86
##42
##ïve
##üss
##üning
##erd
##nter
##tier
##tician
##hent
##hell
persian
##letta
##rile
##rina
##tec
##arf
##ttling
##oca
##urst
##urate
##urable
##cive
##cians
##opper
##alone
##esser
##esman
##ican
##icher
##iceship
##osí
##uba
##uber
##olor
##olunt
##olera
##olulu
##atar
##stool
##stuff
##stvo
ston
stade
stag
##elace
##elnikov
hap
haik
##onte
##ontinent
##etsch
goenn
104
109
##chita
##chwitz
##iranga
##odic
##andi
##gana
##asa
cholera
plo
plea
plag
112
dove
inward
inclusion
trout
##ionage
releg
##unfo
##icism
arom
139
existing
##ishi
shrew
concl
concise
constructive
conchita
##ouski
managing
unil
uninter
unaff
unkind
unload
unjust
##estock
degrade
caracas
freel
##apova
##ustle
alk
align
algor
##rehend
##through
brag
bratis
broch
broker
compute
##imo
##imoto
newer
forci
##assic
##assee
mai
magy
budge
##umchen
adherent
mostly
quiver
##amation
interdepend
##few
opt
robr
parole
parse
parap
disl
disreg
distinctive
disdain
marital
ens
enumer
enrol
yearn
bookcase
gerland
##aby
##ablan
implication
leister
lepe
león
leopard
offset
resins
##shirt
repeal
streak
strap
readiness
scrib
scam
talker
friendliness
courts
induce
##ormal
outsider
outbur
singular
atroc
abdu
abbott
crem
sao
sahara
uprising
presume
schoolmaster
minogue
##ifa
boetsch
hardware
##cloth
underline
allot
allocate
allgeme
waterfront
standalone
warfare
##lestial
invoke
involunt
gla
glaci
transnational
famine
lawsuit
finite
moron
sunflower
skobel
visc
consum
evenly
nok
seagull
overhead
overbid
overflow
##vio
milky
submission
sublim
##connect
discreet
traum
coldest
canon
canvas
bedside
foodstuff
sebasti
bask
solberg
dave
daisy
retort
monarchy
monofil
barric
barletta
provocation
motorcyclist
raff
##ová
sony
propylene
triunfo
armchair
hordern
##iburg
##ibrium
recede
receivable
distrust
distressed
##ropolis
nationalist
troub
reportable
powerless
differential
differentiation
salute
vii
draught
cali
andrew
diving
markus
clearance
publicity
amy
ammon
locust
curly
curfew
irony
tallah
mergel
pickup
birdc
somer
somesch
##hys
elvis
topkapi
##ikh
radish
secondhand
potosí
cameron
loop
triple
suffocate
bahr
fuj
miser
accountability
debris
##naw
danish
squirt
varied
celestial
mek
harper
harriet
turs
palacio
cawley
converge
heine
normative
burnie
banish
luka
##aware
##vana
espionage
audi
fatten
##eshadow
arabian
proudly
polymeri
automate
nucle
nuisance
drench
oslo
equalization
disposition
functioning
kyrgy
accessory
angels
cornered
rollerb
dryer
sharapova
immun
immature
immunity
freiburg
1936
1935
commentator
bundesliga
employers
threatening
administrator
cristina
admirable
analytical
bandit
blockade
naïve
petrobr
##ijan
emergence
micro
##daughter
counterfeit
ethic
apparatus
widesp
handstick
breathless
datex
licens
##cientious
hann
chaplain
adjoin
ecw
ecology
casablan
joyful
##westfunk
poisoning
henman
thinner
barking
wilt
neighbourhood
vanilla
wisely
muham
5000000
50000000
islamabad
oxide
1914
determin
rosa
violinist
hawking
uncanny
guidebook
##eckle
beckmann
##swoman
1903
enhanced
briefly
prosecute
inauguration
shanghain
roddick
condolence
magnus
deduction
scenic
mascul
liquor
reindeer
enlist
barbarian
fulfilment
hazel
teenage
louisiana
prosperous
selfishness
colonial
isolation
afterward
arbitrator
suspiciously
unexpectedly
airlines
marty
bilbao
formaldehyde
##writer
combatant
utility
transitional
deliberation
gestapo
ipiranga
ogawa
frustration
rearrange
patriotic
sparkle
jarama
##building
auschwitz
taboo
punctuation
pumpkin
unnatural
triumphant
wrestlemania
eagerly
lobster
##sdale
9001
marvell
neutrality
stoop
shinjuku
mexicana
jakarta
alleviate
intentional
promptly
racism
dishonor
prettiest
americans
thousands
reunion
repression
shoelace
apprenticeship
vinegar
preacher
hashimoto
cobbler
photogenic
nutrition
giov
vogel
bradl
ferrer
gymnastics
anthony
contaminate
censorship
gustav
konrad
rimouski
neuville
metropolis
indignation
steiner
mediator
autobahn
fussy
abruptly
moisture
sarcasm
misleading
farther
orthodox
conceited
restrictive
restricted
suedwestfunk
bacterium
ejpd
unintell
disabled
##restrial
##ammable
transcend
commemorate
nintendo
hassan
reorganization
andrés
magnetic
fugitive
spartan
thierry
constrain
nordic
rtg
prevalent
incapable
promulgate
horticultural
shrubbery
kafelnikov
ninja
xinhua
stolpe
appropriation
implant
scrutin
confederation
renowned
discontinue
antidote
dlrg
fitzgerald
ouvert
scramble
pharamp
demolish
derivative
html
jagoda
keegan
livestock
szcze
##fabrik
chubby
clarinet
prognosis
margarine
offspring
guzzini
inscription
calderon
fukuoka
polynesian
fertilizer
navigation
namibia
antarctic
asteroid
yamaha
comrades
blasphem
envious
schwerin
obesity
equilibrium
montenegro
pfirsich
bisexual
dmitry
hockenheim
nauseous
nightingale
nmtoken
oyster
rusedski
yevgeny
yannick
haiku
conclave
algorithm
bratislava
brochure
robredo
disregard
lepetit
outburst
abduction
allgemeine
glacier
skobeliev
tallahassee
kyrgyzstan
widespread
casablanca
shanghainese
szczecin
timet
antwer
90000
aide
aqua
azer
auction
bough
bout
cc
citt
clen
ding
dion
dang
dual
dunk
dune
dora
deem
eman
eaves
ff
font
fru
fell
fend
fda
feasible
gn
gb
gw
gis
gol
gnaw
hü
hof
hectic
ic
jig
jug
kal
kis
kep
kope
kato
kiev
khal
kiel
mn
mister
mund
nes
nile
nina
nür
oust
pul
pis
pab
rö
rake
rost
ria
rhet
sle
stic
sane
sledge
tame
til
teas
tart
till
tug
tile
tanger
tah
uribe
ueno
vale
vat
vian
void
vai
vasil
wrinkle
witty
wooded
wanna
yum
zuc
##kir
##kush
##yst
##yss
##ues
##uza
##afe
##acious
##see
##sam
##smit
##sée
##hoff
##hingen
##the
##tube
##dg
##dé
##nant
##nster
##nesty
##cap
##eu
##etta
##ré
##lis
##lif
##lift
##loid
##poon
##prom
##pices
##bat
##bie
##bond
##geable
##mi
##mil
##mir
##mish
##mind
##mmet
##vä
##xico
##zic
##zhn
##znet
##jan
##jana
##jamin
##jera
##wart
##woven
##88
##áš
##22
##qi
##âr
##ergen
##ercul
##onous
##tight
##ticide
##heid
##owatt
percep
##itational
##itory
##rik
##tein
spur
spor
spun
sprain
##enser
##enko
##urp
##orum
##orrh
##usable
##alke
##alian
##alsport
##inn
##iner
##inarily
##instvo
behold
##ulously
##ulating
##ictory
##icja
##omon
##osi
##oscope
##otti
##grow
##react
##state
##stock
##stag
stark
stunt
stories
##elic
##elberg
haile
haughty
##eto
##etah
##lyle
gorilla
thomp
##ilo
##ilst
##ilate
##chi
##chner
evict
##ires
ornament
lions
##asia
chime
chad
chimp
plaus
plumber
plunder
doer
inability
instructor
tract
trek
123
1200
reagan
##ultry
reuse
reiterate
##ruder
arith
arene
138
1300000000
commend
##ishu
##ishly
cone
##adishu
##istrate
gro
grit
grope
grön
##ouses
##ousine
##sein
suisse
mansion
manga
manila
unops
saying
asph
likelihood
proxim
degrad
carlyle
152
freckle
##apist
##verance
##inda
##quer
##requ
laser
lava
intact
intently
intrude
brent
bree
brass
##manuel
comprehend
##imar
##immer
##imori
##iably
forsake
anime
ancest
17000
prizes
builder
##ipher
adri
mostar
quota
##amoto
interactive
##itless
##ennial
roha
rooster
disability
marx
marti
marked
blake
blaze
blouses
polo
pollen
worldly
coex
cozy
bookshop
bookworm
gert
impre
impud
impro
impover
impeach
paid
sms
smashed
germans
lew
##agogue
##shu
##shan
teapot
dried
driving
repent
schle
swiss
stray
readily
belie
outlet
whilst
crate
crust
savan
saalsport
gunter
upgrade
longtime
minsk
minisk
catalogue
mobility
motel
toad
##ologically
recorder
##iless
flea
flair
flush
flicker
situated
underc
underp
underway
underplay
underlie
allmend
refute
youtube
cheetah
earner
usage
awe
internment
internally
##zek
250000
sociable
youngest
symmet
redist
obor
turning
watchman
cork
corros
corfu
isle
rainfall
remin
skier
skunk
skype
conscientious
imme
imitation
immens
##orker
nob
institut
overri
overestimate
overreact
cape
subaru
agony
discern
##akov
brotherhood
hurl
centres
canary
cangre
possibly
finishing
##oblan
retal
circulate
exploration
mats
mistrust
mona
monarch
promoter
filme
##ucker
foreground
raz
steer
steward
steering
legion
legacy
##ovitch
meditate
prophet
methy
considerate
peacemaking
pictures
populous
##henbaum
##ibh
##ibal
distress
sided
landmark
weimar
##undai
##haven
kids
kidney
##fta
vik
dramati
calgary
sorcer
surplus
honolulu
heath
majes
dividing
illiterate
amnesty
inflex
soundly
clothed
bestow
richmond
safrip
thereby
wallpaper
##platz
simplicity
berg
bergen
bertel
##olved
democratization
superman
hideous
hideout
radius
woodson
twitch
hitch
##ylus
##enegger
controlled
veil
vehement
shipment
vicario
totality
194X
crave
craving
couns
madman
madonna
rocker
rocking
erhard
strut
notable
notwith
fukush
expressway
relations
worrying
seriousness
sadden
sadako
misuse
mischief
miscar
vera
accountable
debut
##nań
magistrate
indeci
privatization
escort
hussein
36th
ticona
sales
salem
photography
energ
recording
chemically
converse
connectic
coworker
garros
heil
individually
banja
banjo
luci
industrious
queer
respectful
##venir
##valuation
sensi
sightsee
hillary
kilowatt
borrowing
##xxxs
multic
bali
juho
juergen
##emann
osnab
broader
pancake
fluct
narco
instability
##unga
edo
39th
methanol
humming
hellac
broaden
fitness
sweatshirt
inventory
freud
1932
premise
unsafe
admonish
analyst
45000
resolutions
nagano
rental
benjamin
hymn
hyundai
tortilla
lengthy
devise
gates
souvenir
splinter
##hammer
predomin
cancellation
ukrain
ferret
##mondville
sailing
customary
##ipped
sinister
##glas
supran
fibers
cinder
tenent
tenacity
lines
samsung
chapel
rabies
joyfully
spotted
fortnight
##lader
spokeswoman
##ambique
willy
##habited
obligate
unconcern
sieben
siren
1928
1929
exhausting
reeve
frightening
islamist
grammatically
permanently
bayport
##atsu
skateboarder
dental
##rehensible
shotgun
##skylä
1908
##ürgen
inaugurate
cherish
cherbourg
lifting
advers
passionate
imperson
tortoise
drummer
drummondville
loading
##ochi
entertaining
aggrav
renewal
rothenbaum
frying
koszics
oberhausen
juliet
ridicule
accurately
contradictory
largest
gazette
utopian
unicorn
walnut
granulation
lemonade
breeding
extraordinarily
scottsdale
dimethyl
dignified
collabor
hintze
alberto
activate
billy
##uchi
detainee
homogene
obsession
pyth
sarah
bmx
sabine
inclusive
irrational
kuznet
patriarch
hindu
tumor
tumult
vincent
##anni
rejoin
neurosis
neurotic
felicja
exaggerated
vigor
yunus
auspices
tabloid
conformity
insecticide
unmibh
fidel
tedious
revolver
##rueck
grund
shiny
guinness
reinforcement
affectionate
pessimist
papua
prospective
catalytic
volcanic
##babwe
sociology
august
augsburg
10646
dormitory
plurality
humidity
tangible
reichstag
exempt
bnr
gigantic
giggle
limousine
waistcoat
supplementary
andrei
drastically
dunlop
halve
hemisp
uninhabited
1848
underwent
novot
dwelling
ferrero
aristocrat
meteorological
animated
gustaf
werner
baptist
müller
##rupulous
compatibility
decadent
cimade
rancher
causal
lanzar
waltz
compassion
agitated
prospects
cathexi
jennifer
tubercul
steroid
schwarzenegger
hierarchy
klein
vicinity
##ehring
disobey
pozoblan
poznań
approximately
archaeological
whereabout
inexperienc
courteous
solemnly
jeopardise
inhibition
quantum
paganini
beavers
brightest
turbulence
graphite
aurora
pds
perseverance
smackdown
schizophrenic
eurocard
brutality
douglas
tulip
anatomy
outlaw
sloppy
correlate
##bronn
heidelberg
negligence
jyvä
ljubl
arnold
manuela
unheal
newcomer
flattery
noticeable
insanity
caucasus
fluorescent
sincerity
nicaragua
dosage
equator
jurassic
méxico
urinate
##witness
appraisal
savior
monotonous
unsatisfactory
episode
infinitely
tampere
creole
dreamer
mogadishu
pseud
zimbabwe
##omorphism
acrobatic
brande
forefront
impetus
redundant
seizure
matsuyama
bristle
paramilitary
elysée
hibernate
ussr
##ontinental
dislocate
monofilament
barricade
bahrain
tursunov
heineken
polymerization
rollerblader
muhammad
marvellous
giovanni
timetable
antwerp
città
gwu
nürburgring
rhetoric
sticky
teaspoon
vianova
vaihingen
zucchini
##smith
spunbond
thompson
arithmetic
arenele
grönholm
proximity
markedly
savanna
saalsporthalle
miniskirt
cangrejera
picturesque
inflexible
safripol
notwithstanding
fukushima
connecticut
osnabrueck
supranational
kuznets
lanzarote
pozoblanco
whereabouts
jyväskylä
ljubljana
au
aesch
bv
bü
bolog
byp
buty
batch
bda
cv
cate
cud
cather
caste
cere
cav
cda
dc
dv
did
dap
denn
drow
dude
darm
dfb
düss
eup
edu
egoti
fic
fris
fian
ferv
gá
giv
gary
gab
gib
grease
gotz
gulp
hd
hb
hence
hey
hunch
ih
irid
jal
jong
jürgen
ki
kand
kall
kry
kab
kari
kron
kpd
kendo
lub
lil
loot
lull
mg
mea
mol
mish
moor
mys
mlad
noc
nil
nantes
ostra
pamp
pomp
pochi
quad
riv
roo
rouse
reel
rij
sr
stimulus
siz
sland
sne
sled
tê
tay
teet
ub
uef
vector
vista
wen
wie
ya
yea
yol
zen
zul
zac
zap
zool
##ober
##oque
##uity
##utic
##uric
##uctive
##sale
##san
##sil
##sted
##sque
##saw
##hon
##hia
##hlet
##hmann
##hopper
##tr
##dt
##ić
##iad
##iased
##nox
##cond
##cular
##ei
##eur
##eunt
##eira
##eumchen
##rand
##rans
##rated
##rosp
##rene
##late
##last
##pan
##bc
##bl
##bes
##bed
##bble
##bosch
##gne
##fried
##mus
##mount
##vre
##vism
##zano
##jad
##jection
##junga
##warm
##wald
##qawi
##ünster
##ël
##mee
##ntgen
##onut
##tip
##tieng
##ticism
##owner
##enth
##entric
perry
permissible
peripher
pereira
##itrea
##rix
##rius
##rike
##ritical
spine
##ocre
##enwein
##animent
##urative
##urely
##urai
##orem
##usch
##cize
##opy
##aldehyde
##inity
##ulent
##icum
##omo
##ubishi
##ayev
##olen
##isi
##iscip
##ources
##keley
##tinational
##ivia
##gra
##olini
##aton
##station
##elmann
haute
hasty
##etz
gott
goble
##ured
thou
##ilization
##ilton
##cha
##chin
##chua
evap
##ouette
##ourine
##ired
orak
eventual
##oder
lig
lima
lighten
##asi
##asaki
chari
organizer
##gebra
plc
119
inline
inbox
inhuman
trough
128
##ulty
rede
##utti
##utary
##icing
##icians
##mpy
dayd
##ookie
##hero
comun
exquisite
exeunt
shack
grote
grah
##ousy
##sex
##idad
##idend
144
takeover
mann
manor
mango
clan
clink
clone
clove
clog
clark
unse
unsh
unlim
unworthy
unoccup
unaware
##orth
nept
asians
##iele
154
151
fritz
frantic
##apnel
##indust
playing
alight
alia
altitude
algebra
##ards
lact
lahn
laced
introver
acropolis
bras
breder
compartment
compaq
newborn
newcomb
forese
165
1600
anag
##oyu
174
##inejad
mao
magg
mauri
built
##berger
##oges
sox
soho
sofia
quint
182
1800
##amu
##amus
interoper
paramed
paragu
disqual
blat
blizz
writ
coated
coherent
years
countryman
improb
holding
##ricate
leo
legg
resources
##shwar
schiller
swarm
scour
##epfer
indis
busier
howard
whore
commotion
abyss
sauna
upon
uphold
upload
upright
preside
runway
rightly
cater
catalog
moan
granddaughter
toepfer
accardo
names
formality
flap
flare
elena
##tene
##tenburg
tequila
##cliffe
underwater
alloy
allude
allah
refine
220
slit
slack
chees
warhol
champaign
pok
poach
##upt
##upon
pretext
invitational
gluten
##oupe
socio
syl
syner
synd
motherland
surrey
##ittance
obedience
obliv
obnox
breakthrough
langwe
geys
geoff
genre
##ensely
coral
entreat
huh
classification
termin
rainfor
raincoat
sung
sunburn
airmail
##aires
litter
faro
faroe
farming
theod
theorem
seawater
insulate
overha
subreg
eyewitness
discom
discard
trait
muscular
incess
annem
procure
restart
seine
fib
firewood
efficacy
continual
deficiency
lights
lighthouse
its
bearded
monoxide
providence
foreclosure
remembr
stepp
steven
legation
parks
##ovy
presenter
brie
sendai
freeway
freezer
deac
moder
coffer
##orist
##sterbach
tablecloth
nationalistic
casey
shortcoming
salon
viña
##quality
cupcake
estim
purity
dressed
heating
sihey
goddess
dividend
##apeutic
publicly
emas
amass
informal
cards
wholesale
##xxxx
grasshopper
taxp
irene
reaching
dealings
troubled
tallinn
bernd
bergam
berlus
berkeley
artwork
leftist
parliamentarian
deutz
##baijan
##baeumchen
superstar
environing
prepar
radar
downhill
mainstream
##eneburg
##lingen
508
loom
looph
midland
midori
bagpipe
practition
testament
mastermind
milken
milkman
denial
faculty
madame
preference
regions
erwin
eritrea
finals
bafta
decomp
majors
majorca
misd
misjud
vermont
villain
valais
squid
squander
embark
##untu
37th
eggplant
globalized
damasc
fairmont
scarlet
palazz
recordable
generic
##chenjunga
drunkard
stratton
castro
innate
desktop
tonne
chemist
converter
melinda
heighten
petter
israelis
luiz
lueneburg
centralize
##ahar
industries
quechua
texturi
materialistic
auditing
respectable
networking
urchin
##venile
manufactured
ceram
feedstock
arabs
##xxxm
##graphical
multinational
bobby
liberate
esperantist
negotiable
celtic
juvenile
officers
griev
##mington
saturdays
functionality
accompaniment
flutter
##weg
speedway
edible
edward
czechs
honorary
psychoan
humili
piggy
advantageous
broadway
mirac
inflatable
cutest
unsaid
similarly
puke
corporeal
creditor
actively
##hrase
##iji
43rd
wildly
mixing
archery
torrent
brainwash
devoid
biologist
biased
hamilton
apparel
ferris
fergana
saxophone
embarrassment
cyrill
chickenpox
tunis
samurai
rabotch
ecm
spinning
gaelic
falsify
michalke
##novi
detection
wilmington
amazingly
odor
exhaustion
50000000000
optimization
optimism
##helf
1910
derail
virtual
undes
defenseless
51st
##ievable
epile
epoch
##gainville
##iscover
scotch
deserter
##ogenbosch
untrust
mutati
mutandi
uncont
weirdo
penniless
shriek
apartheid
1902
predictable
quartet
visionary
roberts
minecraft
eyeshadow
akiko
aktieng
eternally
rotate
julien
ramapo
ifor
mortgage
unlaw
motivate
unbiased
colonist
chestnut
oversight
cocktail
humorous
zebra
restoration
exceedingly
francis
coswig
1869
##ophys
hilarious
ample
binder
sighted
advisable
cordon
incomprehensible
privileged
kennel
helmand
coconut
irritation
trailer
imperialist
decentral
partition
relativism
sullen
altered
paradox
vigour
vigil
discriminate
orphanage
hutong
##ández
shutter
sachiko
verdasco
molehill
teddy
vocal
westphalian
kelheim
kelsterbach
ankleshwar
dilute
gilbert
##flake
clariant
buckingham
leeson
lodge
piquet
rhyme
recreate
separated
##varo
stunning
subscription
calculus
tacit
strangest
hypocritical
kanchenjunga
rebuilding
intimate
geographic
incurable
ruettgers
shrapnel
doughnut
mongol
october
limoges
journalism
incineration
6000000000
aigle
bouquet
bougainville
giul
neatly
assassination
summary
intolerable
mozambique
obsessional
fishery
honda
ryan
neumann
grimace
baptize
shoreline
intercultural
intercontinental
mediocre
ludwigsburg
pellet
prodig
likable
##kusen
orthography
claude
johannesburg
escalation
peso
##zanov
hakata
ineffective
populist
heinrich
archaeologist
vibrate
inequality
downsize
hysterical
##lsmeyer
unstable
distort
appendix
intolerance
gandini
gifted
hertogenbosch
ichiro
tianjin
plasma
rebate
discretion
diabetes
observance
brunnovi
ronaldo
gothic
kawag
sashim
vagina
orchard
placid
reuters
moto3
overdose
dismantle
unimaginable
alessandria
autism
bountiful
gambler
kashgar
rég
sprout
beetle
unhcr
leverkusen
scandinavian
presuppose
ravine
armoured
fuchs
nicolás
alphabetical
ewing
spatial
arsenal
unequal
infringement
admirer
autobiographical
fading
bookshelf
impartial
guangzhou
mohamed
recollection
##werkschaft
respiratory
horseman
electrode
spinneret
loneliness
ahmadinejad
paradigm
mitsubishi
pérez
tambourine
yasser
hapsburg
goennenwein
plagia
aromatic
unilateral
freelance
magyar
consuming
birdcage
fujimori
meknes
immunization
petrobras
hannover
masculine
spartanburg
antarctica
blasphemy
pfirsichbaeumchen
azerbaijan
clench
eavesdrop
hülsmeyer
icj
kopek
khalifa
neste
pablo
röntgen
riazanov
tahiti
vasilissa
counselling
miscarriage
heilbronn
sensitivity
cinderella
tuberculosis
inexperienced
unhealthy
aeschylus
catego
catherine
darmstadt
düsseldorf
fianc
pamphlet
slander
sneer
tênis
ubuntu
goblet
evaporate
orakzai
grotesque
graham
unlimited
unoccupied
neptune
lahnstein
newcombe
interoperability
paramedic
blizzard
improbable
legged
obnoxious
langweid
geysa
rainforest
overhaul
remembrance
siheyuan
bergamo
berlusconi
loophole
misjudge
damascus
psychoanaly
cyrillic
untrustworthy
aktienges
antit
antenna
1xxx
3d
aque
aesthetic
brib
biz
bail
blender
cou
cue
cun
csp
dus
dud
eminent
fml
gosp
gallen
ghetto
h5
hic
hue
hose
horm
hern
holl
heck
io
ik
ix
iq
ioc
ija
ji
jere
kne
kitz
kapp
klo
kumi
lel
lect
lenn
lug
lich
lark
mim
mound
nc
naus
nost
nwa
oman
oval
omar
pend
pona
qin
reed
rang
rmb
russ
ruble
sel
sre
sene
szek
tp
tü
tee
tant
ting
tas
tep
tbs
teem
urum
vere
vault
wg
wart
weld
were
wasp
xvi
yp
yank
zha
##oop
##oble
##otence
##kwer
##killer
##yx
##uously
##uette
##aith
##sor
##ska
##sberg
##sley
##slam
##sville
##hale
##hin
##hne
##haps
##hoku
##tu
##dest
##iya
##ná
##nar
##nan
##nier
##nung
##neck
##nava
##cam
##carn
##ctec
##rap
##rance
##lit
##lished
##pill
##pancy
##bt
##bal
##bury
##bread
##bür
##gier
##gio
##fi
##fest
##fax
##fection
##ference
##foil
##founded
##fined
##mble
##vos
##vens
##vitch
##villa
##vuz
##zel
##je
##jus
##jean
##jara
##was
##wind
##week
##watch
##welle
##ád
##édé
##14
##12
##76
##31
##čić
##ènes
##erobic
##imen
##onial
##onerate
##onished
##henko
##hevism
##owl
##owder
##ental
##entef
##eaway
percept
pervert
perhaps
##itas
##lest
##lena
##rition
##teenth
##arme
##arra
##arcer
##artest
##amel
##ttable
sper
spear
sperm
spenser
sphin
##occulation
##riber
entityvalue
##enza
##enuous
##anar
##urf
##urous
##urably
##orff
##cided
##ciously
##opath
##ophen
hearth
hearty
##als
##alc
##inson
##inat
##inely
##inished
##esis
##estive
bey
beep
beige
##icus
##icuous
##omnia
##perate
##antine
##ayan
##istical
##uade
tomcat
tomáš
##emi
##emia
##eminen
##tiness
##olit
##olver
##atten
##stoff
stea
stale
stance
stam
hamp
##onter
gogg
gotta
thigh
thicken
thwart
prag
precondition
##chu
##chuck
##chik
##oux
##oufl
##ctad
##iras
##odra
##asive
##asai
##asota
chao
chlor
##igator
plent
plac
118
117
tru
truman
trnava
126
##ionale
##ulture
rect
relev
reintegration
days
daytime
##ffe
##ellschaft
##ellín
aruba
arènes
1300
knowled
##heric
##structec
exonerate
##htchik
##actic
conrad
conciliation
conmee
constructec
##adder
##istent
##seur
1400
suzano
manic
manmade
clara
##ending
##endous
una
unear
ungr
unify
unfic
unico
unamb
unno
unctad
neil
never
asean
assh
##iege
dement
cars
cartel
caritas
158
fres
frad
frolic
frédé
fable
##apu
##quil
aloof
alcate
altenburg
lao
brd
brac
compiè
##imper
leaning
##iast
analogue
##oye
mak
maci
mama
mastery
priori
##iph
##ogame
##ecake
##rari
##udiate
adherence
##amous
##amide
##enness
##ided
opel
optic
joey
bleach
wrench
wretch
wretched
contention
enqu
coaster
##sily
##eance
gerry
impair
##ricans
patty
smartest
##ssmuth
livelihood
leit
lehmann
offender
##agna
resound
seren
needless
reprim
repudiate
schrem
schae
stratum
strenuous
diarr
##ttered
sche
scanner
##icky
bellig
believable
whack
wharf
singly
abc
creed
gutter
upb
presley
rundf
schoolboy
plank
planck
toki
tohoku
acclaim
accredit
rooms
nameless
##erne
##rov
##robor
##roken
recourse
##ifi
boehring
wazi
##anko
##anker
fling
flask
flocculation
relocation
relay
relocate
##club
undergrow
##tingly
alligator
refinery
idler
idiom
sling
earphone
poop
pottery
##uplenn
usher
invari
##ristic
##stander
afro
africans
desir
backb
backst
backup
glori
assent
##arius
##nez
##aille
##ailable
240
showcase
##ittery
redeem
oboe
obstruction
decimate
governments
passive
corrobor
empathy
morskaya
##uality
terry
terrestrial
remorse
remnant
airbus
skit
demise
doorkn
moth
motorist
nobility
seating
sealed
insti
insomnia
overl
overp
overly
overstep
nightclub
captivate
subt
subd
agitation
grouping
inca
incarcer
annul
seite
sewer
sevent
segre
sevilla
fiat
firing
respected
posit
solomon
daring
daze
retrosp
circular
28000
##okovic
##mittee
maternal
mistreat
bearable
humane
baroque
provoc
specially
##uckle
accidental
raf
rais
rapp
raising
rafter
delray
deluge
parker
medib
meddle
medellín
expectancy
revital
presently
healthcare
trill
arms
horoscope
snowfall
snowflake
plantation
extrusion
##roportion
##ristan
operative
weber
violet
knack
calmer
honshu
sible
apathy
illicit
illogical
selling
emmet
amused
charitable
infat
infraction
banknote
remainder
quicken
electrom
priceless
specialized
strife
born
borussia
##ocratic
convoy
darken
darkest
bests
ballpoint
paperwork
wallow
simpson
berry
rallye
##ismar
##umen
authent
##bauer
supern
superann
superpower
superhero
marin
volker
pastry
preposition
elbe
elaine
topper
woodchuck
silvio
##enezer
storey
campo
campion
##hedule
ships
covered
necessitate
lotion
loath
todo
craz
okra
tata
figurative
fearless
bauer
strum
commonly
issen
##atisation
anytime
screech
##ufmann
snort
misbe
versa
established
murray
##naire
values
##masys
shootout
eggs
meiji
springer
365
hara
harold
breadth
listyev
novelty
burp
fairest
hallway
palermo
hanging
educator
##uffeur
smoky
cowherd
garde
banquet
reformation
dishwas
israeli
luk
lugano
##awl
saty
reduced
civilize
unforge
unforg
unfaith
auditor
tricks
physicians
thoughtfully
bloodsh
lockdown
bolton
artisan
assemb
hillside
maybe
avoidance
crumble
critique
multif
intelligible
polyvin
principality
nonpro
nonwoven
celaya
throng
##enau
##imentary
vegetation
philosophic
disproportion
billions
tarant
within
lesser
montmel
##islav
railing
##ungs
essen
livingston
psychical
bystander
logistical
wetsuit
##chel
41st
wonderfully
##scher
bolshevism
bourgeoi
astonished
analyse
450
45th
ironic
habitat
pizzer
mali
malicious
malnut
therapist
therapeutic
wildcard
concentrated
karlo
acquies
500cc
##cino
devout
brandes
ceremonial
golfer
incidentally
tykwer
historicity
historically
hamper
hamster
intelligentz
hungarian
hungarians
shelby
continental
ferment
ferdin
ferrari
menop
videogame
sectional
asparag
aspiring
pinpoint
napht
duval
hanoi
conceptual
fours
##rismatic
dearest
timber
heroine
gaily
gauge
cashier
norbert
henkel
abandonment
barker
leonardo
circumference
525
renunciation
breatht
dissuade
coastline
colourful
domination
unpack
strengthened
italia
muentef
reschedule
ugliest
atmospheric
fundamentalist
diploma
fanta
rosy
rosario
patio
##espan
bayonet
tipsy
caroline
200000000
roma
thickness
epit
bravely
fascist
untie
##remming
shameful
dyed
dystar
shocking
gloved
definitive
acetamin
acetaldehyde
batman
cathy
compromiser
1904
1909
butler
sacr
tribune
tributary
nickel
tights
lifespan
foggy
desperately
rodent
proceeds
masao
##spiele
riches
##hardt
##radio
disagre
plainly
reincarn
enthusiast
sixty
renewable
hooper
hoarse
throb
lingua
alpha
63rd
hayden
irrever
nagasaki
ifr
roughly
colonize
oversee
dumpster
harmonize
rivalry
isolate
menshevik
62nd
ganges
zeus
reverend
paralyze
sewing
850
1860
1865
##gesic
allegiance
criteria
dynamism
cossacks
ampl
martov
martín
##kinson
matthew
##arini
against
incompati
luxemburg
klutz
lagos
dumbfounded
nikko
receptionist
sarasota
sensational
sensory
confidential
folklore
severity
shellfish
sucker
deutscher
anticipation
hydrocarbon
ogaki
igad
chauffeur
charismatic
ebenezer
hindhand
vinci
prototype
rustle
alteration
paradorn
bernard
tamil
tamori
ernest
digitalisation
manifestation
specul
speculate
incorrectly
70000000
##alajara
125cc
purify
reciproc
vladislav
visualization
absurdity
sneaker
descendant
perspiration
gruel
mexican
dominican
deutschlandradio
gilded
pessimism
ascribe
barren
mythical
heels
paddle
paddling
recurrent
subscriber
monopol
camoufl
addictive
oppression
spectacles
kanji
conjug
probable
albanian
incursion
measles
exemption
extremism
booze
vineyard
acrylate
booming
invaluable
roche
rothmans
internazionale
novaya
frightful
nutritious
galileo
boldly
gendarme
kaufmann
vogts
disgrunt
regulated
capsize
sentimental
immortality
renovation
nieminen
anaerobic
minimization
ferryman
reass
woz
woolen
bassoon
mingle
sasayama
zarqawi
battalions
ayako
tricycle
##bruck
stereo
editorial
##khas
hacker
conceivable
claud
selective
itchy
salzburgring
versus
süssmuth
sigmasys
undecided
hershey
escalate
hakone
extort
marshall
controller
heinz
dissatisfaction
commemoration
macedonian
egyp
hijacker
kumiko
ninth
extermination
courtesy
westerwelle
merciless
jeopardize
djokovic
yoshida
zwick
##racted
articles
articulate
clumsy
clumsily
quantitative
coerce
mohammed
mohammad
overcook
capitol
capitulate
northeastern
mikhailovsky
intolerant
kayak
omelette
vuvuz
stumpfe
precipice
shredded
schloss
indirectly
discrepancy
delimitation
diabetic
hydro
nakam
grosjean
crusade
metaphys
decorative
guadalajara
hingis
llama
sicilia
##birth
revelation
assertion
indulge
indiscreet
pohlmann
delirium
adventurous
narcissism
bureaucracy
intuitive
analgesic
masturb
mouldy
leftovers
eloquent
süddeutsche
imbalance
##bühel
managerial
parasol
prestige
overturn
hitherto
baffled
muchmus
gurkhas
mmd
mecca
mussolini
oeiras
ritual
##world
unaffected
forcibly
scribble
involuntary
viscose
ammonia
nucleus
gisela
kisser
sledgehammer
plausible
coexistence
gertrude
improvise
lewis
schleyer
undercover
immeas
nobody
override
dramatist
hitchh
multicolor
narcotic
hummingbird
predominantly
siebenbür
homogeneous
grundremming
hemisphere
acrobatics
savannah
kuznetsova
bologna
bypass
dvd
dennis
hbv
kandahar
kallio
krylenko
mishap
taylor
zacapu
zapatero
peripheral
daydream
##industrie
lactose
foreseeable
paraguay
cheesecake
entreaty
discomfort
brieuc
deactivate
taxpayer
practitioner
palazzo
ceramic
humiliating
epileptic
##iscovered
unlawful
brunnovikus
kawagoe
sashimus
fiancee
aktiengesellschaft
bribery
fmln
h5n1
hiccup
jerez
kneipp
kitzbühel
leloir
lecturer
lichtenberg
nausea
senegal
szekler
tüb
urumqi
verein
werew
##pillar
sphinx
hampshire
goggles
chaotic
relevance
knowledgeable
unficyp
unicode
unnotice
asshole
frédéric
alcatel
compiègne
reprimand
schrempp
schaeuble
belligerent
rundfunk
boehringer
waziristan
undergrowth
##uplennie
invariably
doorknob
medibank
authentic
superannuation
dishwasher
unforgettable
unfaithful
polyvinyl
nonprofit
montmeló
pizzeria
malnutrition
acquiesce
ferdinand
asparagus
acetaminophen
disagreeable
muchmusic
antip
6000000
Games
aon
aider
bard
bearer
bied
bunk
bouncer
boca
coo
cum
cag
cany
ceci
cush
capp
cyl
cerv
cuff
dé
dame
dul
dean
dire
dund
dunge
dante
doping
ek
euth
erich
euc
equate
fé
fou
fury
fang
gp
g8
gó
gale
gore
gad
gill
gork
gorb
gps
hoot
hoof
hvag
ish
iked
jop
jake
jark
jana
jester
josh
jura
kour
kap
kath
kak
karm
kung
kies
kiri
kuer
kathy
khd
keller
kapo
lv
lame
lom
lant
lure
liz
loo
lone
lance
livid
linger
lones
lola
lasting
lutz
lousy
mtt
mitt
mph
mower
molly
ny
nî
nied
niet
naur
nonter
ole
oun
phe
pand
pid
pang
pne
piti
puff
pius
qing
rj
reek
rach
rik
rasc
sj
ses
soy
sich
svet
ti
tb
tici
tse
tina
tied
tiet
tons
tür
tosh
utt
uigh
uta
ugl
va
vex
via
vint
veng
vyst
wf
wri
wend
woe
wyn
wifi
xi
yoy
yang
yuri
yuko
yeast
zod
zina
Ál
##ozy
##khan
##ysian
##uary
##umann
##aa
##aform
##stt
##sul
##sol
##some
##siness
##hang
##harm
##hler
##hoch
##tale
##tage
##tag
##tze
##tmet
##dal
##dress
##discip
##iper
##ios
##ngent
##nation
##ncer
##cti
##cot
##cye
##rs
##rp
##rake
##rock
##rently
##loo
##lum
##lash
##lude
##litz
##lana
##po
##py
##pent
##ped
##powder
##bé
##bear
##buty
##brid
##gher
##gency
##gens
##fil
##fig
##fun
##fad
##fass
##östi
##vl
##vity
##xé
##zens
##jon
##wford
##64
##98
##éans
##éré
##qsa
##30
##ún
##meal
##onition
##tide
##tians
##heug
##ente
##sonic
peril
##itrile
##rig
##riri
##rice
##riness
##rift
##arche
##amer
sput
spank
##ocer
##ocal
##ociable
##ocado
##ribable
##enz
##enich
##enons
##enkop
##anus
##anmar
##anmen
##anien
##urper
##urge
##orra
##orted
##orese
##usa
##ustion
##cir
##cible
##oprop
##alm
##alon
##alin
##alter
##alasai
##inox
##inople
##ului
##iced
##icable
##ickel
##omont
##peria
##anthr
##osil
##osedly
##ceivable
##ubtedly
##olete
##olese
##isul
##atine
##atitis
##otl
##otent
##otape
##othy
##empt
##kei
##atorium
##sthe
##storp
##sthof
stur
stre
static
styl
stutter
##eln
##elve
##eloupe
hagg
haupt
hariri
##etti
gogh
prua
prussia
##chow
##ching
##chten
##chutz
evang
evoke
evasion
##ouched
##dex
##irk
##irath
##asant
##asination
chi
chunk
organized
##igi
##igibility
##gebir
pleas
##nitz
116
##omeprom
ing
inad
##utant
##icill
##ppner
arag
arna
arche
arno
aryan
arbeit
##oretic
##aller
exor
extingu
##aca
##acency
##acting
##aculation
shink
grouch
##iden
suph
manly
manually
maniac
manpower
maneu
clang
clich
uni
unve
uned
unra
unab
uncl
unob
unama
unhar
unatt
unrest
unatten
unalter
##ortant
##esthe
dece
dehy
deception
deviate
##ndog
##ndisi
155
frail
2020
comerica
##verted
##indrical
##quilla
playfully
plaything
playstation
als
alison
almond
algier
##rexé
reasonably
lau
laid
intif
accede
##olds
works
brat
brav
braid
##manga
compress
##imilate
##iage
fortify
169
anore
ania
##assel
##assie
178
170
##illusion
##alken
##berta
##oga
##ogi
##ecting
##raj
##umonia
##udu
quiz
1800000000
##amo
##amy
##amine
##amtmet
intercour
countert
##athan
rote
robo
parson
parting
parody
parked
disin
disorgan
disintegration
disillusion
margr
marrake
joach
bleak
blot
blister
bladder
expo
expres
exposure
wrangle
contemp
contamin
contrexé
enity
engr
enrage
enroll
coherence
helga
##sified
##oundrel
gerd
gersthof
##about
imped
improp
imposter
impulsive
impede
##ricot
paz
parish
pawn
pavl
##ssitude
##sschutz
leys
offens
##agel
##shi
##shake
##shield
##irei
loved
repl
scher
schlo
schopen
schalken
swat
swindle
strand
diox
dialog
scur
scopp
scoundrel
winder
winning
##icki
##ickle
ones
indesc
busiest
housekeeper
belle
bellow
belsen
outcast
outsp
outright
outlook
outrag
outpost
dogma
doghouse
cron
crater
sak
guaya
upsw
presutti
phon
mince
wayne
movist
realisation
plans
toaster
secular
lifeguard
diffuse
rectify
reclaim
recalc
bode
booth
watt
flammable
eleven
boys
relic
relapse
reliance
relinqu
underage
undersc
undercard
allocation
allan
allian
refined
##lich
colin
youzhn
slur
slay
slut
slang
slash
slumber
sludge
waterloo
standsti
##cker
##ordial
beaten
##lesome
poe
poultry
##meritz
preced
usb
usurper
invader
##achi
##achsen
##achalasai
afar
awry
glisten
glimmer
assasination
assimilate
transm
endian
2500000
sochi
##fulness
##arie
##arice
##arization
surmount
showa
diep
redress
obese
badge
badger
challeng
##erton
2300
gebr
geiger
confection
questionnaire
drinker
genitive
##pton
##ptus
finer
finitude
corndog
empower
emptiness
supposedly
moralist
hump
terrace
falluj
sunscreen
sundt
reminder
airtight
demote
consular
liechten
node
they
theology
insulation
overpower
overdo
teleph
hourly
headband
headdress
milder
capac
subcom
##conf
discord
smallpox
##screw
foliage
windscreen
windshield
hopelessly
incoming
##istency
procrea
birch
sey
soluble
dazzle
dacians
retard
rethink
defens
protector
280
wrongly
mistress
bears
monza
##alyptus
blacken
barak
barba
barran
specified
##ulele
raman
rattling
delicacy
delinqu
##lix
##ligent
stephan
steeb
##aza
##azin
brindisi
concession
concurs
prophetic
propriet
requisite
##tivation
##tivism
modena
crim
crimin
snowstorm
##orient
##orily
##orise
##orities
avant
avocado
avarice
mountaint
distraction
##titch
extrude
extruder
streetcar
communities
filmmaker
filmmaking
shorthand
powerlessness
landmine
landtag
detour
##hauer
##ftop
viking
hateful
hairy
haired
seasonal
seasonings
afflu
cooker
paintbrush
traveling
penza
penicill
##coon
andorra
honk
heave
sirius
##avorable
apron
apricot
heartless
##brand
emulate
emma
fuller
amiably
charon
charle
charlem
##cessible
##aterina
infest
infancy
infected
infrequ
infamous
clubs
electroph
hotly
hottest
specialization
babble
songwriter
stringent
postulate
hoeppner
envis
safest
ballistic
blueberry
blueprint
absolve
hoechstís
horseback
merck
mersin
##plus
##placeable
cleanse
cleanliness
poorer
berling
sheikh
someplace
birthplace
##bau
greenery
mills
millhaven
officials
352
hermit
elsa
eligibility
radcliffe
typist
##paid
lethal
downstream
silo
silicate
twain
twister
twelve
ladies
campbell
camparini
shipbuilding
baguette
complacency
checkers
crafty
crawford
okker
drawback
facade
rocks
judo
bawl
##orno
philharm
sportswoman
notre
notably
choir
decoration
anyhow
tatoeb
snuff
saddam
preferable
misch
veranda
verkh
verfass
verheug
painkiller
vacate
correctness
messy
100th
##roductive
variant
variance
spirou
embody
christina
##ricken
prinosil
meiting
harrison
turm
burner
##ysis
gunpowder
scarperia
generously
generating
tickets
sanda
caring
caffe
simulation
millionaires
equinox
connolly
##kau
heer
burnett
##system
##urid
##urious
fixed
portray
jackie
##ahashi
tradesman
combustion
unfit
unfavorable
buddy
audition
sanitary
trickle
warmly
flemish
urgency
bolivia
pullover
hills
christie
puncture
occident
##xxxh
bossy
boardwalk
multitude
feign
temperament
##sured
exhale
exhort
offices
polyte
furry
jules
drone
thrash
bowling
grid
osama
diario
equalize
dispel
fullest
kyiv
kyösti
unified
riding
footballer
mentioned
##achev
hostaform
weariness
##ungsschutz
occupant
edmond
miles
rosewall
legislator
psychophys
briton
##smünster
contentment
contentious
byte
tutor
bulge
constitutionally
##chess
freight
francon
festivity
premonition
donn
webcam
unsolved
unsociable
##schule
myanmar
missionary
astr
astro
corporal
knocker
navel
natto
ironical
methodical
argentine
digestion
digger
malice
malady
micron
copying
commandment
hybrid
constantinople
karelin
consequent
acquit
primrose
primordial
##furt
tracking
brandt
biwa
biarr
biathlon
counteract
silencer
hamm
ukulele
widest
flatly
linkage
##selassie
stuffy
menarche
taj
videotape
aspire
pines
shyly
subsistence
keirath
farmhouse
pollutant
mobilise
duchess
liner
samuel
toolbox
mathieu
casing
heroic
ordeal
pacif
croak
norman
norweg
territories
falcon
falsely
extensible
insistent
48th
instrumental
twofold
52nd
conserve
detesystem
boiler
dissolver
negligent
contestant
##ersachsen
1921
1923
linden
lindsay
odlum
chiefly
58th
naval
skillfully
##aramanga
optimum
oxid
1913
houses
virtuous
opposing
narrows
liberalization
undiscovered
stricter
chambers
lynn
clergy
romney
graveyard
fundamentalism
unthink
untrans
untouched
hypno
atlas
hesit
foolishness
baton
photographic
gallop
gallant
prostitution
shrill
scholz
mistakenly
hopkins
1901
consultative
butane
symbolism
niche
lifel
64th
blessed
desperation
condole
condone
olga
exactly
mascot
##builder
alexandra
rouss
ricard
##emonic
entertainer
mcfad
aggreg
3000000000
rogue
corps
ahc
june
piercing
everlast
julie
julian
sexuality
possessive
eighty
proportional
irreplaceable
spirituality
spaeth
65th
alpes
bucaramanga
migratory
axiom
##lonitrile
sportsman
8586
janis
janet
1861
1863
granby
conveniently
segovia
southwestern
##vised
##tisan
microscopic
dynamics
dumas
riga
rigorous
soured
inconceivable
gravitation
cutter
cordenons
sedative
amends
genuinely
burglary
kennon
##wrap
obsolete
sabb
cocoa
inclination
beforehand
bishops
kansai
melancholia
patriotism
takahashi
amazement
felix
kurdistan
##winner
stainland
oaks
squash
modestly
discrimin
publicist
aptos
darfur
ratio
suppression
ernstt
besiege
seasick
specimen
shui
braun
schulz
dolan
destine
knitting
125000
dialectic
santos
orléans
cheerfulness
architectural
excessively
neutralize
grumpy
shinano
uneasily
anderstorp
diagnosis
carnation
servic
continuity
vulnerability
gooseberry
ascertain
brasilia
flawless
barbershop
mythology
faded
xiao
xiaoyu
1886
gerhardt
thriller
disguised
miniature
probation
compulsive
synagogue
enthusiastically
catastrophic
passer
sheriff
buffer
atheism
887
boob
biohoch
lovable
acrylonitrile
1876
1870
andreotti
inconvenient
hemorrh
lasagna
uninsured
photomont
obscene
novak
annexation
incinerate
aegean
boulev
mockery
stanford
grenoble
repatriate
multiplication
multiplicity
aleks
chronology
animate
belarusian
decayed
mesmeri
ryo
woj
sachsenr
münch
zhang
indigestion
nichirei
tricky
prodi
911
gelatine
avenge
bacteria
jenny
whence
manipulation
abhorrent
canadian
emilia
eyelash
hierarch
vicissitude
zipper
inefficient
disobedience
populated
dissatisfied
disgraceful
hijack
iaea
ottoman
##girls
choreographer
exterior
degenerate
reliably
westerner
merciful
harassment
lucrative
christiansen
olympiad
bodies
durable
tornado
zwickel
thierse
overcrow
brigham
françois
française
dakota
tetra
tiananmen
vasquez
inaccur
inaccessible
unimpressed
unimportant
laurea
intoxicate
schizophrenia
delimiter
lustre
orchid
trembling
farbenindustrie
francesco
unimaginative
ajar
guadeloupe
hinge
kurz
kurume
ovum
##nsional
##frame
##osystem
congolese
analogously
levomeprom
saucer
teutonic
undoubtedly
hohenstein
bureaucratic
disrespectful
gesamtmet
nancye
oecalan
qaeda
unscrupulous
displease
blurry
indictment
redouble
instinctively
detachment
gaudens
exemplary
procrastinate
palli
rheum
trusting
exultant
shabby
##zeitung
consulting
authorisation
tatarstan
xmlxxxlang
predictor
conspiracy
amphitheatre
handcuffs
eugene
frugal
luebeck
moyá
muffin
rennes
sulfuric
shrewd
interdependent
##abyte
atrocity
glacial
nokia
sublimation
sebastián
troublesome
miserably
unintelligible
hockenheimring
dionysian
doraemon
kepa
mnemonic
mundo
pulver
rostock
##lifting
##milch
##ârâ
asphyx
degradation
breeches
impoverish
corkscrew
corrosion
razor
stewardess
indecisive
fluctuate
aggravate
python
rhetorical
heyman
meager
rooftop
srv
sizeable
wietenberg
yeah
yolk
mannheim
introverted
maoist
disqualify
written
syndrome
moderator
preparatory
corporeality
rabotchi
sullenly
régime
plagiarism
aqueous
courier
cunning
hormone
holler
lennon
wartime
zhao
sperenberg
stammer
pragmatic
plentiful
unearth
fradkov
leitmeritz
desirability
backbend
glorify
corroborate
overlap
subtract
bestseller
supernatural
campionati
misbeha
unforgivable
assemblies
karlović
intelligentzium
muentefering
camouflage
metaphysics
grundremmingen
werewolf
biedenkop
cagnes
canyon
cushion
cylindrical
cervical
dundrod
euthan
eucalyptus
gómez
gorbachev
ikeda
joplin
jarkko
kirilenko
kuerten
lomé
lantern
lonesome
nîmes
niedersachsen
nonterminal
ounce
pheasant
pneumonia
rachid
sjeng
sichuan
svetlana
ticino
tietmeyer
uttar
utah
vintage
vengeance
vystuplennie
wriggle
wendy
wynne
yoyogi
zodiac
##khanov
sputnik
##gebirge
aragón
arnaud
suphachalasai
maneuver
unravel
unattended
intercourse
marrakech
joachim
expreso
contemptible
contrexéville
gersthofen
improper
schopenhauer
scoppito
indescribable
outspoken
outraged
guayaquil
upswing
movistar
recalcit
relinquish
underscore
allianz
youzhny
standstill
gebrselassie
fallujah
liechtenstein
subcommittee
barranquilla
delinquent
concurso
mountaintop
penicillin
charlemagne
electrophoretic
berlinguer
verfassungsschutz
verheugen
meitingen
caffeine
biarritz
norwegian
unthinkable
untransl
mcfadden
ernstthal
photomontage
boulevard
mesmerize
münchsmünster
levomepromazine
gesamtmetall
biedenkopf
timer
antic
Best
a3
aan
amin
aura
bont
bing
bain
bris
bian
bility
both
bung
bustle
cé
coy
cull
cuck
cask
clement
cfc
dp
das
dell
dach
dere
dys
dello
eul
eta
eaten
ft
fec
feld
frick
footing
faust
fickle
gj
gé
gos
gmp
gep
gans
gord
galy
gush
gyp
gsm
gatch
hp
hoo
hend
hath
hound
hool
hoss
houd
himal
heather
hustle
ion
ite
ian
iber
igor
iann
irina
jub
jot
jir
jest
jint
jav
jumble
jocular
jih
janko
km
kre
kern
keel
koll
kush
koch
kopp
kitty
kéré
kassel
lime
lore
lec
louse
lash
lough
lomb
lashk
mure
mou
morm
mural
ned
nove
nip
nog
nair
nba
nix
niel
nero
nerd
oat
oli
omin
ouch
oeh
outta
pn
pst
pest
pitt
puss
pik
piet
pisa
pix
qatar
rer
rade
righ
rache
sö
sear
sati
siv
sly
sard
stif
sine
sang
sina
sark
scep
stitch
tate
tean
torm
tusc
ung
ves
vance
vip
vath
vesti
varn
wt
wes
wul
wol
woo
womb
wield
xen
xue
xxxx
yan
yel
yed
zig
zav
zaire
zucker
##oz
##oic
##oten
##kee
##kou
##kina
##yk
##you
##yman
##yah
##yana
##uo
##uis
##uven
##ucin
##uristic
##aris
##aism
##sn
##sight
##surf
##sbruck
##hf
##hip
##hile
##hlend
##tc
##tl
##tm
##taro
##dome
##dated
##ioc
##neft
##coal
##ctory
##cology
##cogn
##caster
##cutter
##eing
##egate
##rally
##round
##rano
##lly
##lbor
##lvez
##pie
##path
##pence
##pret
##pons
##bard
##bug
##blin
##bana
##bins
##balance
##gus
##gie
##gia
##fight
##found
##fting
##foot
##feng
##fusion
##felt
##mity
##mor
##mant
##make
##mand
##mied
##vesti
##xi
##xon
##zner
##zzy
##jay
##jua
##jack
##junov
##wo
##whe
##wil
##wau
##wanese
##wurst
##60
##90
##áz
##ácio
##ébec
##étaro
##500000000
##29
##71
##ük
##ät
##ław
##úl
##erétaro
##onation
##onian
##onica
##tib
##tiz
##tici
##tirol
##tieth
##tillation
##hea
##hest
##heed
##heav
##owang
##entz
##enthal
permate
perinat
##ité
##itated
##itator
##itably
##ität
##leng
##river
##riev
##rika
##rician
##riko
##rigu
##teur
##arte
##ares
##arro
##argar
##arlier
spenc
spawn
spades
##ocop
##earm
##ended
##enster
##anati
##uro
##uras
##ored
##orest
##oralist
##orably
##usya
##cii
##cion
##cies
##cind
##cill
##alom
##alido
##alented
##inc
##inarian
##incible
##esul
##esos
##estim
##eset
##esco
beget
##ulk
##ulatory
##icht
##omic
##omical
##omile
##ommer
##cipation
##ants
##antan
##osn
##osely
##oscience
##ved
##vex
##aye
##isitive
##istine
##isbury
##uage
##atio
##atise
##otle
##otten
##emption
##embl
##emocratic
##ives
##ivocal
##nery
##groom
##olin
##oling
##olate
##aty
##stre
##stoy
##stma
##sery
##sere
##serv
stout
stave
sturd
stasi
stalin
##elder
haem
haze
hagen
havoc
havana
##etting
##ethen
gomez
goblin
##ureen
thrive
prad
prone
pretent
prune
prawn
##ilm
##ilit
##chool
evans
eviction
##oule
##deo
##decl
##develop
##irus
##ueck
##mention
orland
orbe
oranien
events
##odel
##andri
##andel
##asperate
##ates
chant
chab
chick
chord
chak
chandal
##iga
##iguity
##gewerkschaft
plume
plaza
##derling
113
110000
inning
inject
inhal
incidence
inorgan
ingle
inverse
inhale
inácio
trun
trance
trud
truce
129
regent
reyn
rehear
reheat
reusable
##rud
##ruz
##essen
##essio
##essmuth
##uta
##utsch
##unct
##univers
19th
##icize
##icidal
##auss
daybreak
ark
arnd
arush
135
133
130000
##allo
exac
exclusion
exasperate
##acruz
shun
shall
shog
shint
conject
condu
constructor
##adena
grog
grail
graff
grüning
##sect
##sede
##idas
##idean
143
suessmuth
suicidal
many
manati
manfred
manzan
clar
clad
claust
##endnis
##osta
uno
unqual
unapp
unix
unwise
unpaid
unwrap
neue
neva
ascii
##estre
projection
##iew
deity
decle
detem
debit
deviation
carr
frat
frock
faser
fatty
##apest
##apük
##aparte
playful
alab
alky
alma
albeit
goodnight
##rement
##reira
##ardi
laud
intrusion
aces
accel
workload
workflow
brock
brood
brüning
compulsion
newfound
foresight
fortified
forearm
168
163
176
173
##ineon
maar
maris
makau
maureen
pristin
buendnis
##berish
##ecker
sof
adidas
quo
quart
query
québec
querétaro
interact
intervie
intermin
intermed
interchange
interdiscip
counting
artificially
rover
rodeo
parlor
partisan
disloy
disconnect
distillation
##omaniac
mare
marce
marlow
marconi
maría
marlbor
bling
bleat
bliss
blunder
expatri
writhe
enig
enric
enmity
co2
coven
##sification
yearning
appal
appari
bookkeep
##abo
##aba
##abi
##abel
##abakh
impart
impass
improver
##rically
pari
pavel
paule
pageant
leuk
##agawa
reserv
resembl
##shaker
sergeant
serpent
needy
teacup
driven
olden
rephrase
schw
schwe
schmied
swah
swatch
strat
strals
dielo
dijon
scape
##epatch
placebo
onward
homes
homemade
engel
courta
courtroom
indo
busily
bushy
##issy
##issimo
belkn
outset
outdated
why
##areva
##arevitch
handball
handshake
atv
atti
atkinson
abati
abate
abridge
crook
crooked
sahar
guana
uptake
upheav
preserv
presetting
preschool
runny
phyl
phobia
moelle
##astan
toiling
accred
wellington
##ignment
##erno
##ernally
##ernicus
recanati
cityweek
cityplus
boeing
flick
floss
fluff
flora
undern
##tingen
allround
refurb
226
2200
##licted
coloss
slate
slab
slag
waterproof
standby
##ordination
cheque
cheating
chels
beacon
warship
greatness
##iera
happening
poise
precept
invasive
invincible
##achn
##achia
desexual
backbone
awhile
transsex
transfusion
regen
252
socket
socially
syrup
syringe
##asha
redemption
badass
englishmen
drinkable
decimal
genie
finale
watcher
##ensation
##ensical
corret
entities
supposition
ames
ameli
amenity
morally
morales
funn
##atively
##olliet
isoprop
huang
often
classified
terrain
rainwater
raindrop
sunbat
skyl
demoral
demobil
visibly
##aird
consc
consistency
attvalue
lieber
farce
theat
insul
insurg
insolence
insolent
overem
overjoy
overcast
overrun
teledat
hours
##ichiro
milf
milwau
capri
captive
captivity
capita
subpo
aging
eyeglasses
discour
beautify
musab
cirque
incas
incest
incite
increment
hurried
presidents
centrif
annan
kingston
canc
##type
birming
motors
sentient
semen
seville
secede
##oba
##obi
basil
solms
facet
dai
daw
defer
defamation
##entionally
numbers
monomer
monika
catcher
federalist
barley
barometer
contracting
rau
ravi
razz
raúl
employed
cuts
parkinson
##ovsk
##ovasc
medea
medalist
##azawa
nationally
sonata
brim
concerted
concussion
##siderate
parental
##atical
triathlon
signboard
signatory
horribly
metab
peacekeeper
easygoing
##henheim
minutes
##terior
avilov
recep
##kyll
extraction
externally
##roprocess
communal
differentiate
differentiated
landline
landfall
tiresome
salisbury
##hav
##hael
##hawar
viper
vijay
tiredly
knead
##borg
##borough
afflict
affinity
##goat
teamwork
mountainside
sihler
##aven
heartfelt
##brit
##brueck
marker
emblem
emaci
emmanuel
amrit
##arthi
charger
charcoal
deadlock
infineon
inflicted
cardiac
##imalist
occhetto
summerslam
sounding
quickest
stronghold
dreamgirls
electroc
electrician
generalization
generalized
locom
locally
babe
petrify
##gnate
##lins
flowers
irresp
irving
carpark
artery
nationsunivers
kinda
tougher
excav
superc
superfl
superiority
mariko
willful
greene
greener
volapük
350000000
##hyl
hered
hercu
preposter
universally
elastic
radiate
momentary
downright
woodfor
woodcutter
twirl
twelf
##interpret
ladenburg
##yler
holster
holbert
potentially
crossword
camps
shipw
##lington
culturally
vicente
boxers
lofty
stupendous
bags
tatamus
tatyana
tester
goldfish
republics
denote
judaism
councilman
eros
erasm
erkin
erlang
bahn
baik
commons
commonplace
##atism
decoder
protectionism
saddest
competitiveness
floorboard
misc
misplace
misanthr
verte
veracruz
accountant
debtor
debug
murmann
vacancy
dana
danke
valuation
squint
magical
##roduction
##oulos
indecent
##atoires
oilfield
spiral
embe
embed
churchyard
##burger
suffering
copesul
copernicus
robust
robbins
metic
meister
metics
mezz
harald
harbin
damon
fairfax
hallucin
modernity
imaginable
touching
touchdown
iihf
palalido
layout
caj
caris
cauld
collusion
colloqu
innsbruck
equipped
##uffling
convertible
palestra
periodical
##kao
crimes
garret
garessio
heist
heide
normality
burning
localize
peg
pekao
luca
lucia
luigi
porto
currant
satan
faulty
individuality
destab
combined
unfounded
unfinished
unforese
##yers
budapest
bottled
espargar
audacious
sanitation
sanchez
miy
miho
fatally
fatah
fledg
urs
urdu
locksmith
lackfabrik
##eshi
drugstore
shutdown
maya
mayonna
contractual
kilt
avoidable
ocotl
stockholder
feeding
initiation
387
standardized
bombard
bonaparte
##entials
betake
polyclear
polyamide
celcom
nuance
drc
##lency
pushup
philosoph
diafoil
laboratoires
withhold
fingertip
##weigh
franken
apprehen
mannered
ambiguity
leaflet
sexist
weapons
speedy
edgar
eddie
seeking
literacy
observant
cornerstone
psycho
rolling
pigtail
pigsty
apologise
regrett
congreg
congresos
normalize
argumentation
bulky
bulgar
immoralist
saltshaker
calcutta
broadest
broadband
freshly
##chet
##chee
##chev
sweaty
affordable
1934
1931
cheaply
threatened
references
##atini
astray
cooler
credentials
naci
naomi
naumann
waveleng
corrections
kickbox
malt
maliki
microprocess
stiller
##onaut
440
karen
karol
karak
karstadt
karachi
karabakh
##iffer
thirds
devotion
primakov
##lamy
bias
bienn
counterbalance
koeln
pathological
raphael
nursing
remarkably
hungover
alliance90
##namon
breathlessly
freddie
flatmate
ferreira
menstru
tao
##jiang
sailboat
stadelmann
aspria
benchmark
##ipple
10000000000
100000000000
sino
##ursor
shyness
keio
napoli
suprem
featured
cinnamon
hanna
linfeng
chaplin
influenza
guarantor
curie
ecosystem
castilla
dearly
spinn
heroism
congressional
pantry
floodwater
reno
boiling
picket
ulster
ulterior
willed
wilander
##ophobia
dissent
obligatory
##stadion
##uca
amazed
farmers
mutin
persuasion
tsarevitch
ideally
venomous
grammy
##insky
virtu
maximalist
rosen
rosem
rosary
rosneft
dismal
scientifically
diamonds
lenient
feverish
exclamation
undemocratic
chamberlain
complication
forbidden
lyusya
cruelly
bruno
tolstoy
toluca
##iscence
fascism
inatt
unto
untalented
tagalog
shameless
uncomp
dyework
foolishly
eraser
pennetta
##eckner
proletarians
consultant
cdata
provisionally
nicole
nicely
accustom
adverb
adverse
fogg
750
##cherous
quarantine
dedication
kerry
wuer
jamie
masaru
unusually
roberto
promotional
immigrate
alexandria
alexei
eyepatch
akin
akita
patterson
deafen
sixpence
aggregate
barbar
barbed
300000000
hogan
hoax
ahmed
shaky
wrapper
screenplay
##putable
destruct
astronomical
hammered
hammersch
aries
ariane
somali
##tsin
irreparable
irrevoc
nagorno
raton
partnerships
proofread
unleash
megabyte
dickens
jesuit
alphen
nonsensical
harmonious
590
ganga
zehlend
paralysis
paralyzed
acknowledgement
85000
##judiced
granny
##roachable
paragraphs
canteen
lorentz
quas
quack
quadr
rouge
fraudulent
healing
incons
inconsiderate
activation
culp
cultivation
attainment
hornet
titanium
cordial
cordially
seductive
##modern
alienate
perpetrate
theoretically
##rophobia
dumbass
kenny
nikkei
powell
soleil
victorian
##wrc
obsessive
simonis
61st
venez
bmi
sabatini
taiwanese
conqueror
flavia
bridegroom
mika
ebb
ebay
hindus
nasser
tumour
taking
takuya
protrude
rejuven
federated
cafés
felcht
cornice
reemstma
pcpt
##oppy
graphical
browse
genetics
skewer
taba
gracious
bulgarian
veterinarian
goettingen
##agnetic
strategically
sleeved
beset
seashell
unmik
70000000000
weeping
recyclable
crochet
visualize
baselitz
terrifying
dilber
gilles
ponytail
##tello
evacuation
abnormal
jelena
jekyll
piper
precursor
excellency
fernández
paddon
pretoria
composure
1888
recurrence
peninsular
grinder
augus
augment
aristotle
laziest
complementary
kanjus
scattered
internationale
metallic
antagonist
pasadena
selden
tenderness
würzburg
feminism
vacuo
88th
booked
divert
molding
limitless
affirmative
journalistic
unprejudiced
ginza
gabriela
receivership
perfectionist
dweller
junko
stanley
sternly
chuckle
trees
unavailable
intended
björk
meteorite
alegre
armenian
adams
illumin
illumination
hessian
hondo
hondt
honduras
pitched
conveyor
cannibal
knights
infantile
recreational
sasol
geometrical
tempura
nikolai
nashar
pelosi
##escu
prodolliet
handicap
undertook
caesars
causality
gelatin
pinto
hacksaw
prudence
1373
grownup
aeropl
ejaculation
gulliver
jumbo
khanjunov
whereupon
unintentionally
emilio
vaccinate
pentec
peshawar
packet
pornstar
ventures
bewitch
superstitious
eradication
dissatisfy
bureaucrat
bibli
iaaf
lacke
liverpool
pleb
plekhanov
waldbach
resentment
secrecy
inviolability
andré
hysteria
biotech
tenants
valenciana
bodily
khaki
lutheran
yoshio
##deutscher
unstead
distortion
coercive
turbine
molecular
prolonged
hexagon
herta
tetanus
treadmill
vucin
##ezza
persevere
staggering
plastici
inexorably
clamour
clamber
intoxic
outrageous
slavic
promulgation
horticulture
irritated
turkish
observatory
hydrate
gemini
staat
plaque
tremor
abuja
moto2
overdue
metaphor
apostolic
francesca
dismantling
autistic
bounty
gingerbread
heretic
kashmir
spranger
tranqu
scandinavia
indulgence
presupposition
relentless
delirious
concurrent
concurrently
crutchlow
alphabetically
jellyfish
objectivity
objectivism
gestic
sopot
prostate
plastered
shamira
almsick
intuition
sergei
sweetest
lukewarm
gaudio
exemplify
südtirol
resettlement
dorothy
fürth
kramer
pontarlier
stenograph
tactful
1492
unrecogn
schreiber
scalp
cranky
authorised
amalgamate
cardiovasc
digitisation
xmlxxxspace
unprof
unprote
conspirator
bartoli
görlitz
jockey
mourner
omnip
río
ucs
vapor
xiii
yakuza
stoned
relegation
relegate
alkali
ensue
induced
allotment
trauma
fattening
licensing
hazelnut
gustavo
scrutiny
emancipation
gnp
valet
##kirch
perceptive
ancestry
impregnate
impudence
symmetry
oboront
reminiscence
immensity
retaliate
methylam
sorcerer
majestic
ukrainian
adversity
impersonal
collaborator
novotná
gustafsson
pseudoscience
bvs
butyl
euph
fervently
gálvez
gibberish
iridium
kronstadt
mladic
pompous
riviera
rijn
uefa
zulima
lignite
comunidad
anagni
quintanar
caterpillar
refinement
pokemon
synergy
terminology
subregional
annemarie
procurement
stepped
texturize
grievance
giulio
gospel
ikea
kloeckner
mimi
nostal
russell
ypres
##festspiele
beyond
ungrateful
unambiguous
serenade
diarrhea
provocator
raisin
infatuate
electromagnetic
marinsky
craziest
satyarthi
menopause
naphtha
breathtake
sacrament
reincarnation
speculator
monopolize
claudia
egyptians
vuvuzela
nakamura
masturbate
immeasurably
hitchhik
tübingen
unnoticed
fouday
gorky
kungliga
pidgin
rascal
türk
uighur
ugliness
yuriko
Álvaro
evangel
inadmissible
extinguisher
unveil
unabated
unharmed
unaltered
alsace
algiers
robotic
margrethen
impediment
dioxin
oneself
poetic
diepgen
confectionery
capacitor
procreation
crimson
criminally
charleston
philharmonic
turmoil
psychophysical
astrology
hammock
tajik
pacifist
lifelong
condoleezza
rousseau
aggregated
sabbatical
discriminatory
serviceman
8879
asphyxiation
misbehave
euthanasia
untranslatable
cullman
cuckoo
fechenheim
gordon
galyean
gatchina
hoover
hooligan
iannone
jirga
jintao
jihad
kernel
koppelin
kérékou
leconte
lashkar
nixon
ominous
oehler
pussy
rachel
söderling
siview
stifle
sinai
sarkozy
tormo
vathi
varnish
wulff
xueyou
yeltsin
yedinstvo
zuckerberg
##surfing
##juato
##wheel
permatex
perinatal
spencer
pradesh
pretentious
orlando
chabrol
inorganic
inglewood
reynolds
arndt
arusha
conjecture
conducive
grüninger
manzanares
unqualified
declension
detemobil
alabama
alkyd
acceleration
interviewer
interminable
intermediary
interdisciplinary
disloyal
marlowe
marlboro
apparition
pauley
reservoir
resemblance
schmiedinger
swahili
stralsund
scapegoat
belknap
saharan
guanajuato
upheaval
moellemann
cityweekend
refurbish
colossal
chelsea
corretja
isopropyl
sunbathe
skyline
demobilization
insurgency
milwaukee
subpoena
hurriedly
birmingham
emaciate
amritraj
irrespective
nationsuniversität
superfluous
hercules
preposterous
woodforde
twelfth
erasmus
erlangen
cauldron
unforeseen
espargaró
fledgling
mayonnaise
ocotlán
wavelength
microprocessor
supremacy
irrevocable
zehlendorf
rejuvenate
aeroplane
plasticizer
cardiovascular
timeless
antel
antig
agents
agentur
700000
700000000
aom
ail
avi
aerial
aapt
aix
aquila
aqsa
aesthe
bp
bist
bice
barge
bert
bony
biod
besp
bfl
bbc
baird
cic
cole
cari
cower
carter
cesar
cackle
cnn
cooked
dost
dab
dative
dorn
derm
dung
dagger
duly
dangle
darn
densely
eume
ezz
erection
erik
fp
fest
fass
fsi
foe
foil
gü
gan
gist
gid
gian
gio
garm
gdp
glee
gann
hi
hl
hin
hua
hive
hep
hull
hanger
hinter
halog
hür
hoch
hallen
hooded
hulk
ici
ipp
ipt
iph
jort
jena
jsm
jiff
jae
jagu
jär
jurid
kg
kri
koc
kul
kart
kad
kris
kail
kob
kib
khy
kief
kask
kats
kwa
kao
klee
krö
kittery
lest
leed
lori
lask
lender
lira
lapse
lts
loya
lizard
moc
mink
mack
migh
mck
mcc
moss
meci
munch
mbe
mestre
myers
nn
ntt
nal
nay
nir
nate
nook
nie
niss
nah
nipp
nunci
nfl
nessie
o2
oem
oss
omen
ovation
ocho
pö
pua
pia
pane
pike
plen
pana
porce
peck
pimp
pelle
poodle
pbs
pârâ
pwrc
qure
rü
ran
rie
rink
rath
rup
ritt
riet
reech
rero
ruffle
rfc
rookie
ripple
sf
sq
sose
sarm
since
sdp
senna
sides
sagu
sdat
sosn
sissy
tand
tome
tut
tad
tup
tuck
tief
tsch
tsere
tyler
uh
ump
uten
vs
vid
vind
vich
vouch
vcr
varon
vfb
wow
wee
wrea
wint
weal
wiss
wich
wob
wright
wimp
wrink
wismar
xylene
yi
yon
yus
yud
yilm
zo
zu
zhe
zem
zug
zib
zamb
zamen
zucc
##kt
##kow
##kun
##koor
##kka
##kothe
##kempt
##koulos
##yame
##yll
##ygens
##uper
##uve
##uke
##uish
##aic
##auri
##agram
##aimed
##sv
##sea
##ske
##sand
##stical
##soon
##soul
##satz
##sicher
##hm
##hti
##his
##hil
##hart
##hous
##hong
##hoy
##hsi
##hov
##horn
##hunt
##hui
##hurst
##hasa
##houette
##hagel
##tly
##dner
##dad
##dles
##drate
##iem
##ias
##iman
##iarity
##ielli
##ičić
##nake
##nef
##nsburg
##cz
##cation
##cos
##cass
##cert
##ceable
##cester
##cusable
##eky
##eii
##etence
##rope
##rton
##rador
##rared
##ractor
##lime
##lder
##lack
##lical
##lane
##litus
##pell
##pre
##pold
##pec
##park
##picker
##pierre
##bing
##bound
##bare
##bench
##bral
##bted
##buck
##bla
##gm
##gow
##gade
##gaz
##gated
##gious
##gien
##gonal
##fen
##fee
##fry
##fine
##fect
##foe
##mly
##moor
##mitt
##mium
##mallow
##mologist
##muda
##vic
##vat
##volent
##xia
##xtile
##zing
##zco
##zsche
##zhel
##jov
##jectory
##wed
##wick
##wenich
##80
##4000000
##ávez
##ées
##éry
##élie
##56
##55
##25
##ße
##íř
##ípe
##ília
##ínez
##qvist
##38
##ünd
##śnie
##ñiz
##ñas
##číř
##ès
##ějov
##mex
##meier
##erer
##ered
##erie
##erina
##ntan
##ntico
##oning
##titi
##tiri
##tian
##tizen
##owy
##enthe
##earing
##eated
##eably
##eafter
##sonance
pervas
##its
##itime
##itte
##itos
##lett
##lefeld
##ityl
##rion
##riminate
##tese
##tegaz
##arl
##arb
##aras
##arre
##arded
##arsky
##ameral
##ttles
spout
spiri
spiel
##ributable
##alence
##eary
##enay
##enary
##enica
##enreich
##encies
##anz
##urada
##uruza
malein
##orant
##orca
##orteur
##user
##cium
##ciating
##cigal
##opathy
##opolitan
##opatra
##opje
heartedly
##alb
##aling
##aluation
##alien
##alculation
##inch
##inans
##inium
##esia
begu
##icon
##icative
##icrous
##ominate
##pert
##osing
##osse
##uban
##ubli
##ubrand
##ubordination
##ubičić
##ubünd
##ayas
##ayne
##olester
##iset
##isburg
##isini
##ischer
tomoko
##atize
##oty
##otra
##othel
##emand
##emark
##tinence
##tinium
##ners
##gression
##green
##olon
##olan
##olum
##olism
##oluti
##estinal
##reast
##atore
##atose
##atro
##atov
##atuk
##stro
##stak
##strate
##staple
##strings
##strike
stob
stomp
staging
stamen
stricken
##elcome
##elino
##eligible
##etzer
##lying
##lycer
goell
gould
##ecipher
##torch
thy
thra
thrift
prow
promen
prado
prenz
##iler
##iline
##ilith
##ilvan
##chne
##chton
##chron
evc
evade
##ingway
##oum
##outi
##ouring
##ctuary
##deon
##dehn
##detto
##irel
orb
ortise
##eases
##oden
lib
lies
lique
libra
havel
##edam
##ganji
##gansk
##asing
##ashenko
##asgow
##atee
chrom
chau
chávez
cholester
chisini
##igte
##igger
##gelen
planner
platero
##efer
##efruit
1100
11000
doo
inaction
inalien
ineligible
trent
troph
120000
##ionic
##ionaire
reactive
##ultur
reest
reins
rebu
reorient
worcester
##rule
##ruciating
##utate
##utaci
##unnel
##icia
##icitis
##mpia
##mporal
dayton
##pping
##ppiness
##adeva
##ffle
##ellan
##ellich
are
arte
arman
ardu
arlington
aryame
136
134
131
1342
##bless
##herical
##oremention
comatose
##alling
seethe
excer
excise
exotic
exuber
exxon
##enefeld
##acus
##activity
##aclitus
shing
shir
shish
shad
shim
sharm
shiel
shawl
conway
##adze
grate
grower
greta
##seley
##idge
##idable
##idious
##idae
141
sug
suv
suntan
manned
clover
clerm
clito
clutter
unam
unfe
unless
unison
unbu
unopp
unopen
unesco
unkempt
nec
netizen
neubrand
asce
asap
##estone
##esthes
##estadeva
pro7
proactive
prokop
##ieh
deme
debor
decode
caress
carav
carval
carbox
carcass
156
fret
fraz
20th
fah
fauna
##apsed
##verband
##quin
##quish
alman
alister
alba
alca
aldehyde
tours
##rek
##rep
##reiber
##recht
##ardy
##ardom
laos
laven
##oalcos
intra
intensely
intrigu
##thouse
acorn
actinium
workday
workbench
bros
brem
bret
brothel
compatri
compilation
##tiful
partridge
newse
166
167
16th
160000
1600000
16xxx00
##acki
##illity
##illari
maori
maures
primate
prieb
bugg
burial
##berra
##bergh
##ogl
##raut
##raught
softer
ado
adac
adap
adena
adkins
quitter
quorum
quimper
##amac
##amatsu
intermission
intersport
##ennig
##ideo
artifice
opio
opium
ophthal
openness
rooney
rotem
parlour
parach
parma
paratro
discl
discon
disintegr
disfig
##angular
marrow
maritime
jobless
blo
blois
expiration
wrath
ensh
encir
engelen
##eeker
coeff
coarse
couber
coetzer
watery
yearbook
appease
appartment
booking
##eanu
gerula
courthouse
statelessness
##abis
##ablish
##abund
##abata
implicit
impotence
impending
impotent
##ricature
paella
paola
helplessness
smirk
lived
levene
##otherapy
offenburg
##agasc
resur
restive
resolute
resumption
##sha
##shinstvo
callas
childbirth
serf
serum
needful
repel
repower
reptile
reputable
repsol
scholl
##lower
swind
strad
strauss
dib
diht
diana
diallo
readjust
scaff
sculp
##epke
friends
onlin
onset
oncology
homesch
homeowner
##gina
unita
indemn
induction
##issant
##issary
##issive
belo
belated
outage
outweigh
whin
whales
whaling
commute
dogmatic
abb
abid
absc
abla
abode
abram
abiding
abreast
cray
sauer
guantan
guellich
runs
longwood
schoolyard
schoolbag
schoolgirl
ways
catarina
mori
moore
motif
moose
moving
##astly
##astery
realist
realism
210
toil
toed
tokaido
securi
seclu
##ansen
lifeboat
##robe
##rofo
##rofen
##rotiri
##ifice
##iferation
##ifiable
boar
bohl
formidable
waffle
##asek
flank
flung
flunk
flinch
elegance
##tens
##tening
##tened
##tension
##llo
released
tegu
sites
##clusive
##closed
##clidean
underdog
underdevelop
underlying
##tings
refill
223
ida
idly
idah
idios
idyll
collins
slant
slot
slosh
slacker
eurov
cheeky
warner
earache
##iero
potit
##uprofen
##mert
##merge
##merse
preteen
teaching
##achu
##risma
afp
afrika
aforemention
desolate
backlash
internship
glotz
glasgow
assail
assago
##otextile
##otemporal
transient
transvesti
endlessly
enduring
reggio
##ondo
254
25th
25000000
socied
societ
startled
##aried
##arium
##nei
241
2400
surt
weekday
redirect
obrador
breaking
307
stopover
23rd
langen
meanness
getter
getty
geotextile
confu
confide
decisiveness
genesis
lawrence
finest
finicky
watchdog
passed
corona
entice
entangle
supple
amelia
morph
morgue
mortify
funnel
##ualism
isab
islet
huan
huygens
fallacy
rainer
proficient
remar
remand
remittance
rembrand
airman
airstrike
skater
skoda
skopje
demographic
demilit
sleeplessness
attributable
immanuel
immerse
motley
lieb
farc
noriko
theo
thematic
seabird
##ianov
insin
insati
insistence
insubordination
overhe
overboard
overconf
overrule
televised
##viar
##ichte
memo
memorise
##ecile
headway
milong
miloslav
depose
deplore
capitan
sublime
agu
agn
agon
agust
agencies
##consin
##phosph
discourse
27500000000
easel
##akeable
trapp
trajectory
letters
agreed
winding
windsurfing
musa
incarn
centeon
centauri
annie
annih
coldly
canberra
procter
restful
beds
sentences
sebes
fiance
fiery
fiasco
##obahn
daurada
##ggy
retrain
retrial
retriev
defile
deficient
defiance
deftly
pointer
lightbul
##okke
matrix
monuc
monsoon
monastery
blackout
blackpool
roundup
barman
filth
provence
##ulet
foretell
raul
rattles
delusion
stevens
legality
##ovable
##ovico
firstly
expectant
##uitable
socialization
socialize
##mberto
revis
revival
revised
revaluation
##ttled
brid
##works
concord
##atico
propel
prophes
propionic
##elda
##minded
horde
horace
methylene
crist
crimp
crichton
billboard
elections
snowsuit
poppy
##orice
##oride
##oriented
312
avid
avian
distraught
extricate
fishy
trojan
greer
township
shortfall
powers
landes
landlad
tirana
weh
wehr
natasha
salz
salam
salaried
##osphere
drafting
knsb
knuckle
knokke
calab
calcium
cooking
foothill
footpath
flowing
translatable
penit
esf
purr
andean
andree
honganji
authorities
sioux
accordion
offering
gods
godmother
apia
illner
heartb
heartburn
heartstrings
##brenica
emissary
islander
amanda
ammo
amiga
amélie
washroom
fighters
fastlane
##irtschaft
infirm
infilt
infrared
infobahn
clubhouse
roadway
summertime
forceful
dreamily
electrol
hotline
wasteful
sciences
boreal
borski
borotra
convulsion
##lining
europa
posts
postbank
curt
susilo
irc
hospitable
shopper
shoplifting
ballerina
enjoyment
absoluti
responsive
gardner
gardens
##appy
declared
norton
horsepower
walloon
carpe
estrange
estád
jumpsuit
tallow
hatchet
bermuda
rallying
owen
kindred
autos
autod
excruciating
technically
presse
pressing
supernational
superdome
marina
volks
voltage
##scheid
##omerate
revolutionize
steps
stepmother
330
heraclitus
universality
elea
elisa
topas
radiant
radically
momentous
momentarily
downfall
woods
silhouette
viele
secondly
##ylation
##ylan
starace
starbuck
climatic
holly
potent
crossroad
veb
coverall
lunchtime
loft
loiter
midair
midwest
midnight
midwife
todd
checkmate
beers
viewing
crab
craze
stupidest
termas
termite
doubted
denier
madagasc
injunction
effortlessly
regionally
ersatz
finalise
baham
bafoe
philistine
rising
choosing
northrh
droplet
fuzzy
expressly
recogniz
coloration
snuck
snoop
misman
misprint
misinterpret
verlag
debbie
muratti
##nau
##naec
danny
dancing
achille
squillari
##bandian
1001
magellan
##legic
quieter
luckily
coatz
copiously
operations
cede
trafficker
mečíř
springtime
springfield
breadwinner
turbul
saleswoman
burda
burkina
fairer
particulars
haller
hallmark
modernized
doubtfully
palme
generosity
radioactivity
introductory
containing
containment
layman
caricature
caviar
simone
simkins
wedag
##alfinans
tonic
chemnitz
##uffer
##evideo
conversely
convergence
ignacio
connected
periodically
models
melting
melodra
##fica
garfun
hebron
heuristic
impostor
individuation
burns
reformulate
murderous
beatus
pebble
##bergwerke
foundry
kenyan
portly
noiselessly
jackal
gasquet
criminals
natured
tasteless
##ahu
civilized
weightless
environmentalist
trademark
totalitarian
texture
combate
audible
sanrem
sanctuary
sticker
respectfully
flev
fleming
flensburg
urbana
##veningen
blowtorch
lockheed
septet
bolk
bolster
sender
sensibility
justine
mayotte
maybrit
kilob
industrialization
avoidant
borrower
stocky
stockton
fruitful
appointed
##xxxsec
standardize
scientology
cruz
cruci
##odynam
mulhouse
##enders
bonfire
balsam
citizens
breaded
negotiated
polycond
polybuty
polyphosph
nonmet
nonverb
drac
drenthe
##ferding
saturate
democratically
##afa
##afel
##lenic
oceania
sweetly
patoka
brooch
pushy
diagonal
fulda
tarot
primeval
functionary
savor
flux
fluency
##menistan
apprehend
unifil
gentry
montal
montpell
montevideo
whey
whee
destroyer
##donia
##ungen
esslingen
edwin
edifice
ghastly
accessibility
aimless
honoree
acety
angl
psychologically
humala
puberty
britney
regression
jacomo
normalization
bulld
immobile
freshman
pharmaci
inflamm
inflammable
inventive
frei
freestyle
franca
regretful
cheapest
unsoph
unsurp
unsuitable
ghostly
##schutz
##schreiber
admittance
myk
authoritarian
##ulds
ille
usefulness
resourceful
antiqu
protestor
digestive
comforter
benin
koran
koreans
malta
malcol
mosul
miche
microc
commanding
hygien
wilding
wildcat
blindfold
quarterly
explanatory
chancellery
battlefield
toray
absentminded
karad
##vantaged
##cini
holes
bihar
biennial
bodybuilder
rustic
ethyl
##igration
splurge
afghans
kofi
koepke
rapper
staffing
499
illegible
hunting
alcoholism
bellbott
taed
taut
taube
adulthood
cheeseburger
pinkerton
##castle
licorice
fortunately
100000000
jeremy
##glomerate
ketene
supra
farms
##channel
mobil
duo
duisburg
tenor
diputaci
linear
lining
sambi
influencing
martini
whoop
southernmost
fournier
youthful
46th
timmy
gaiety
gaël
joyous
ordination
ordinal
ordnung
congressman
panties
spotlight
croissant
nora
##lauer
falafel
henin
henhouse
instruments
semic
renoir
ulcer
wilkins
dissem
dissip
coloured
louver
louvre
unconv
leanne
dominion
sieu
sieg
siegel
##drated
vanquish
wischne
wisconsin
##uccino
1926
lindbergh
mueller
sheepdog
navarro
5000000000
tsardom
idealistic
venom
venerable
venstre
##helieu
qualitative
##ropriation
##rosse
1911
1915
unhappiness
appeals
deterrent
cleopatra
fundamentally
bosn
permanence
##ofen
##aldi
raccoon
subsidize
subsidiarity
gynaec
liberalize
nakedness
undone
ruby
treacherous
kinston
clerical
respondent
romika
username
##ieva
##ievous
crackdown
kohlschreiber
bruce
brunei
royalty
tolerable
##iscite
gravely
bottrop
fonda
##rolled
47th
53rd
until
untied
mutua
tags
uncalled
confessional
definable
fifteen
stretcher
albany
albino
journalists
unconsciously
beckon
becken
cathodic
##sworth
begum
itemized
itemised
adaptable
instinctual
briefing
splitting
disputed
symbolize
rarest
moralism
therefrom
tightrope
purchasing
platonic
bugle
550
5500
642
poseid
marionette
mustang
mustafa
colombian
despotism
75th
rodrigue
condor
scholarly
olsul
olmert
etc
etat
etna
renegade
luxurious
unseemly
masked
##skoye
burgher
##spit
richey
richelieu
ceaseless
fraught
switching
akhurst
akrotiri
##ranto
reinvent
##sault
chartered
mumble
thermos
inherently
##azzi
hoop
hoist
hoard
steadfast
aho
substantiate
folding
pacemaker
rationalize
tibia
##olymer
cowardice
grinds
mentality
ratko
ramsch
faintly
faintest
prosperita
muggy
muguruza
tentative
unlink
keyboardist
dickson
stabilise
stabilization
thorp
inquisitive
unbur
unbroken
pepperberg
domesticate
kimura
negatively
gamma
aftersh
producers
valentin
85th
cosima
unicyclist
unicredit
unicameral
730
bikers
contravene
impatiently
nazism
quaint
quasi
quaedam
69th
surgical
brilliance
puzzles
hilferding
##worth
inconsequ
inconclusive
clinch
fascination
66th
amputate
martínez
xxximp
##crasy
stakeholder
gravy
cuzco
caledonia
sedimentary
##bowl
incompetence
klava
perpetuate
homo
homophone
nikon
oxymor
sensor
marcos
nobleman
simultaneity
brilliantly
bmc
witchcraft
baronet
deutschmark
occupying
##örner
attaché
commencement
cedric
cassette
splendor
chaper
charisma
ebro
hindsight
takeshi
protracted
passageway
suli
wwii
warehous
worshipper
currywurst
benzoic
grapefruit
genetically
musharra
barnstaple
82nd
hölder
loewenich
mallorca
##roglycer
limbo
inevitably
grader
graubünd
bluest
keenly
darling
mowilith
##iyama
triumphantly
##sdag
##sdorff
unmoved
unmiset
forthcoming
4000000000
fidget
fiddler
nitroglycer
vitas
dialec
9002
wages
sneaky
unfairly
perspire
stubbornly
randy
dominik
bambang
gilsoul
##telli
threadbare
clarification
clarinetist
buckle
disadvantaged
servicing
propagate
crystall
inflationary
pitiful
velter
##kovskaya
##yncrasy
clueless
ascap
blackmailer
diligently
71st
ibuprofen
xiaoming
##horse
preterm
unwelcome
1882
1887
recursive
landlocked
camper
##ometric
gratify
abdul
rhinocer
dormant
dresdner
fisch
kanazawa
vividly
conjure
repressed
incorporation
cantonese
rampart
shroud
divergent
soweto
vitality
##hearted
lambsdorff
1877
distinctly
profoundly
affirmation
karlsson
punctuality
67th
duplication
hemingway
ludicrous
rochus
uninv
1847
frightfully
unbearably
vogt
vogue
prolific
saarbrueck
saarbergwerke
broadcaster
ferrand
74th
jaani
niue
altar
altru
altana
acronym
1890
1895
subjection
monumental
loosely
konoval
mesityl
pirouette
raghav
stimulation
##röm
##erbate
condominium
frosty
newlywed
1839
1835
reproductive
cannabis
patronizing
tenisowy
aaa
baptism
erode
mühl
minghui
pfennig
zhu
zhong
##niacki
##olitical
chirp
##rupted
anonymity
simplification
simplified
tempting
tsarskoye
ayrton
dali
euclidean
unrelated
whites
undertaker
predefined
configure
rhythmic
unsuccessfully
guam
gelora
humbug
jonathan
vlach
warden
rebellious
centimetre
selena
selected
selectivity
suedmilch
contemptuously
fiercely
aerona
aerobic
bielefeld
khanna
mournful
renault
sterile
earnestly
escalator
hiroshi
squadron
gonzales
brewery
hartford
lankes
pornography
ventilation
xxi
##zanne
103rd
##udgeon
marshmallow
transcription
merriment
battered
approximation
approximate
pursuance
homosexuality
biblical
codes
hissing
kunst
kunming
kumamoto
lackey
lacrosse
naming
ottawa
vowel
vibrant
hasselt
orgasm
lighted
1147
114th
reorganise
swabians
scouts
conspicuous
submissive
tradership
magnetism
toothpick
lucerne
olympus
tremendously
bashir
sparta
inhibit
shattered
appendicitis
petitions
psychiatric
contemplation
cosmonaut
cosmopolitan
aluminium
gandhi
gifu
otranto
omelet
omega
wristwatch
wiener
##language
chatterbox
inexcusable
reboot
arcade
alamo
laurent
laurel
intoxication
paramount
eurocentric
mountaineering
irritable
turkic
turkmenistan
brunette
bangladeshi
douche
gotti
gastón
hippo
hippie
kafka
ninety
nakaz
rosset
##lagat
stauffer
appropriately
scruple
outlive
confederate
salmonella
apostle
michelle
negligible
sympathetically
marginalize
legitimation
legitimacy
foamy
ajax
botan
hereby
jyestadeva
ljubičić
sicily
##currant
##frost
##vetadze
revelry
assertive
newcomen
sauípe
teutsch
noticeably
insanely
fuchsia
nicaraguan
comparatively
uncommonly
chronicle
dwindle
darts
gaga
jenkins
kiplagat
mantel
nudist
nudie
oecd
riester
ullman
ullmann
ullrich
spatiotemporal
styrofo
prostějov
102nd
arsenic
unequ
almaty
displeasure
sweetie
diketene
jobseeker
bigotry
weinberger
eloquently
candidacy
anthropologist
autobiography
antisocial
antisemi
benedetto
eliot
imbecile
pontus
rhein
yuka
yugansk
##finite
##oplastic
rehhagel
parasite
schoesser
schoenefeld
prestigious
cardiologist
baffle
diminution
diminutive
precautionary
amphitheater
charlottesville
eugen
görts
hrbat
izvos
jochen
luechow
mourning
oasis
ríos
rennyo
tidal
tidemand
stagnation
104th
plotter
uninterest
alkane
alignment
interdependence
parapet
enumerate
atrocious
cremate
cremona
traumatic
canonical
sebastian
raffarin
somersault
determined
transcendental
scrutinize
aquarium
emanate
golos
sleek
yummy
##kirche
sportif
ancestral
adriatico
redistribute
redistribution
reminis
immensely
discernible
retaliation
methyl
vikings
vikzhel
sorceress
majestically
lucius
sightseeing
unconcerned
unconcernedly
impersonate
collaborative
patriarchal
vigorously
fidelity
büchner
castel
cerebral
daphne
drowsy
drowsiness
eduard
egotistical
frisch
given
giveaway
jalisco
karim
ostrava
teethe
wenshan
zoological
hautepierre
chariot
charities
unseen
unsettled
brasov
brasília
maurice
blatant
scourge
indisputable
sylvia
oblivion
oblivious
theodore
incessant
incessantly
##ovyi
estimation
decompose
misdeed
miraculous
miraculously
tunisia
tacitly
taciturn
prodigy
categorical
categorically
psychoanalytic
psychoanalysis
antitrust
bizarre
dudley
hueben
ncea
ranging
srebrenica
tinge
spears
##stofffabrik
rectangle
##htchikus
manicured
dementieva
makoto
macint
enquiry
scheveningen
backstair
instigation
subdue
incarcerate
seventy
retrospective
rafik
rapporteur
revitalize
trillion
lukashenko
disproportionate
epithet
incompatible
conjugate
wozniacki
hydrox
schleyerhalle
siebenbürger
vereinigte
bardmoor
cecil
cappuccino
dungeon
kourkoulos
kaplan
kathmand
mttc
nietzsche
rjr
riksdag
wfp
##stheater
sturdy
shinkansen
uneduc
unattain
dehydrated
intifada
countertop
disinfection
replay
schloesser
scurvy
cronstadt
seychel
protectorate
stephanie
proprietary
affluent
infrequent
envisage
mischievous
verkhovsky
occidental
polytech
franconian
donnay
clergyman
hypnotize
gallantry
hemorrhage
wojw
hijacking
laureate
pulverlack
recalcitrance
brisk
dpg
eulogy
gepidae
loughborough
mormon
november
nielsen
oatmeal
olimpia
pikachu
wolseley
orbetello
oranienbaum
chakvetadze
chandalum
inhalation
##rudence
exacerbate
shogus
graffitus
unapproachable
carrà
almagro
brockwell
newfoundland
maarten
marcelo
expatriate
covenant
leukemia
courtaulds
preservative
accreditation
transsexual
conscript
discouraged
cancún
metabolism
locomotive
##hylactic
shipwreck
baikalfinans
mezzovico
carisap
regrettable
congregation
bulgaro
nacional
taoism
spinnstofffabrik
virtuoso
foggiest
wuertemberg
hammerschlag
inconsistent
culprit
sasolburg
plebiscite
unsteady
vucins
intoxicating
staatstheater
tranquillity
unrecognized
oborontsi
methylamyl
nostalgia
tajikistan
antelope
antigua
aomori
aesthetics
biceps
bflpe
eumex
ezzelino
gioielli
ganns
hlasek
halogen
hürth
iptf
iphitos
jortzig
jiffy
jaeger
jaguar
kailash
khyber
kiefer
kaskade
kwaśnie
kaohsi
kleedehn
kröske
leeds
laski
meciar
mbeki
nalbandian
nirvana
nissan
nippon
nuncio
ochoa
porcelain
pârâul
qureia
rupture
reecho
reroute
sql
soseki
saguenay
sosnovyi
tschernobyl
tseretelli
umpire
utensil
vichy
varonil
wreath
wissmann
wichita
wobbly
wrinkled
yusuf
yudhoy
yilmaz
zamenhof
zucchetti
##sicherung
##neftegaz
pervasive
spielberg
##cigalpa
beguile
##atukal
stobart
goellner
promenade
prenzlauer
ortisei
cholesterol
inalienable
reestablish
armani
arduous
aryamehr
excerpt
exuberant
shieldex
clermont
clitoris
unfettered
unbutton
unopposed
neubrandenburg
##esthesia
deborah
carvalho
carboxy
frazier
alcañiz
lavender
intriguing
compatriot
mauresmo
priebke
bugging
adenauer
opioid
ophthalmologist
paratrooper
disclaim
disconcert
encircle
coefficient
gerulaitis
scaffold
sculptor
onlineset
homeschool
indemnity
ablaze
guantanamo
securities
secluded
tegucigalpa
idiosyncrasy
eurovision
potito
transvestite
sociedad
societal
gettysburg
rembrandt
overconfident
retrieval
lightbulb
rattlesnake
prophesy
landlady
andreev
electrolysis
estádio
supernationality
starbucks
madagascar
bahamas
bafoeg
northrhine
turbulent
garfunkel
